unsigned char converted_model_tflite[] = {
  0x20, 0x00, 0x00, 0x00, 0x54, 0x46, 0x4c, 0x33, 0x00, 0x00, 0x00, 0x00,
  0x00, 0x00, 0x12, 0x00, 0x1c, 0x00, 0x04, 0x00, 0x08, 0x00, 0x0c, 0x00,
  0x10, 0x00, 0x14, 0x00, 0x00, 0x00, 0x18, 0x00, 0x12, 0x00, 0x00, 0x00,
  0x03, 0x00, 0x00, 0x00, 0x18, 0x44, 0x01, 0x00, 0xb4, 0x31, 0x01, 0x00,
  0x9c, 0x31, 0x01, 0x00, 0x3c, 0x00, 0x00, 0x00, 0x04, 0x00, 0x00, 0x00,
  0x01, 0x00, 0x00, 0x00, 0x0c, 0x00, 0x00, 0x00, 0x08, 0x00, 0x0c, 0x00,
  0x04, 0x00, 0x08, 0x00, 0x08, 0x00, 0x00, 0x00, 0x08, 0x00, 0x00, 0x00,
  0x13, 0x00, 0x00, 0x00, 0x13, 0x00, 0x00, 0x00, 0x6d, 0x69, 0x6e, 0x5f,
  0x72, 0x75, 0x6e, 0x74, 0x69, 0x6d, 0x65, 0x5f, 0x76, 0x65, 0x72, 0x73,
  0x69, 0x6f, 0x6e, 0x00, 0x14, 0x00, 0x00, 0x00, 0x48, 0x31, 0x01, 0x00,
  0x34, 0x31, 0x01, 0x00, 0x18, 0x31, 0x01, 0x00, 0xf4, 0x30, 0x01, 0x00,
  0xd0, 0x30, 0x01, 0x00, 0x7c, 0x2f, 0x01, 0x00, 0x58, 0x2f, 0x01, 0x00,
  0x44, 0x03, 0x00, 0x00, 0xa0, 0x01, 0x00, 0x00, 0x6c, 0x01, 0x00, 0x00,
  0xc8, 0x00, 0x00, 0x00, 0xbc, 0x00, 0x00, 0x00, 0xa8, 0x00, 0x00, 0x00,
  0x94, 0x00, 0x00, 0x00, 0x80, 0x00, 0x00, 0x00, 0x6c, 0x00, 0x00, 0x00,
  0x58, 0x00, 0x00, 0x00, 0x44, 0x00, 0x00, 0x00, 0x30, 0x00, 0x00, 0x00,
  0x04, 0x00, 0x00, 0x00, 0x42, 0xce, 0xfe, 0xff, 0x04, 0x00, 0x00, 0x00,
  0x10, 0x00, 0x00, 0x00, 0x31, 0x2e, 0x35, 0x2e, 0x30, 0x00, 0x00, 0x00,
  0x00, 0x00, 0x00, 0x00, 0x00, 0x00, 0x00, 0x00, 0x00, 0x00, 0x00, 0x00,
  0x00, 0x00, 0x00, 0x00, 0x00, 0x00, 0x00, 0x00, 0xcc, 0xbd, 0xfe, 0xff,
  0x00, 0x00, 0x00, 0x00, 0x00, 0x00, 0x00, 0x00, 0x00, 0x00, 0x00, 0x00,
  0xdc, 0xbd, 0xfe, 0xff, 0x00, 0x00, 0x00, 0x00, 0x00, 0x00, 0x00, 0x00,
  0x00, 0x00, 0x00, 0x00, 0xec, 0xbd, 0xfe, 0xff, 0x00, 0x00, 0x00, 0x00,
  0x00, 0x00, 0x00, 0x00, 0x00, 0x00, 0x00, 0x00, 0xfc, 0xbd, 0xfe, 0xff,
  0x00, 0x00, 0x00, 0x00, 0x00, 0x00, 0x00, 0x00, 0x00, 0x00, 0x00, 0x00,
  0x0c, 0xbe, 0xfe, 0xff, 0x00, 0x00, 0x00, 0x00, 0x00, 0x00, 0x00, 0x00,
  0x00, 0x00, 0x00, 0x00, 0x1c, 0xbe, 0xfe, 0xff, 0x00, 0x00, 0x00, 0x00,
  0x00, 0x00, 0x00, 0x00, 0x00, 0x00, 0x00, 0x00, 0x2c, 0xbe, 0xfe, 0xff,
  0x00, 0x00, 0x00, 0x00, 0x00, 0x00, 0x00, 0x00, 0x00, 0x00, 0x00, 0x00,
  0x3c, 0xbe, 0xfe, 0xff, 0x00, 0x00, 0x00, 0x00, 0xe2, 0xce, 0xfe, 0xff,
  0x04, 0x00, 0x00, 0x00, 0x90, 0x00, 0x00, 0x00, 0xca, 0xa7, 0xb7, 0x3d,
  0xdc, 0x0a, 0xca, 0x3e, 0xde, 0xb1, 0xf8, 0xdd, 0xdd, 0xd4, 0xbc, 0x23,
  0xe0, 0x2f, 0xb3, 0xf7, 0x34, 0xa4, 0x3a, 0x81, 0xe2, 0x27, 0xbb, 0x21,
  0x08, 0x46, 0xcc, 0xdf, 0x6c, 0xe9, 0x25, 0xa5, 0x03, 0x23, 0xa4, 0x02,
  0xcd, 0xd2, 0xca, 0x17, 0x94, 0xaa, 0xbd, 0x14, 0x32, 0x4a, 0xec, 0xf4,
  0x4a, 0x18, 0xf9, 0x1d, 0xbe, 0xc3, 0xee, 0xe7, 0x15, 0x09, 0x13, 0xe4,
  0x7f, 0x4a, 0xf6, 0x07, 0xc8, 0xec, 0x17, 0xe2, 0x2e, 0xe1, 0x12, 0xf8,
  0x27, 0xe1, 0xee, 0xca, 0x5d, 0xac, 0x26, 0x5e, 0x25, 0xe8, 0x10, 0xf4,
  0xf0, 0xf3, 0x0d, 0xc2, 0x7f, 0xf1, 0xf6, 0xfc, 0x09, 0xe2, 0xe9, 0x35,
  0xd6, 0xc4, 0x24, 0x13, 0x51, 0x1c, 0xaf, 0xba, 0xd0, 0x79, 0xa2, 0x29,
  0x06, 0x19, 0x0e, 0xc8, 0xf5, 0x22, 0x19, 0xb1, 0xfe, 0x56, 0xff, 0xc7,
  0xf2, 0xce, 0x05, 0xd1, 0xd5, 0x04, 0xdd, 0x18, 0x22, 0x2e, 0x48, 0x9c,
  0xc6, 0x81, 0x1a, 0xd0, 0xc7, 0xcd, 0xe7, 0x41, 0x00, 0x00, 0x00, 0x00,
  0x82, 0xcf, 0xfe, 0xff, 0x04, 0x00, 0x00, 0x00, 0x24, 0x00, 0x00, 0x00,
  0x46, 0x15, 0x93, 0xf3, 0x3d, 0xe4, 0xcd, 0x2f, 0x7f, 0xc2, 0xb0, 0x11,
  0x04, 0x02, 0x49, 0x21, 0x47, 0x7f, 0x7f, 0x06, 0xec, 0x78, 0xd6, 0xaa,
  0x78, 0xdd, 0x96, 0x81, 0x83, 0xb3, 0xd9, 0xc3, 0xc6, 0x54, 0x29, 0xbd,
  0xb2, 0xcf, 0xfe, 0xff, 0x04, 0x00, 0x00, 0x00, 0x90, 0x01, 0x00, 0x00,
  0xb6, 0x39, 0x26, 0xb0, 0x00, 0xef, 0xca, 0xb2, 0x3e, 0xe1, 0x16, 0x63,
  0xd1, 0xce, 0x18, 0x53, 0xaa, 0xb6, 0xcc, 0x2e, 0xa4, 0xbd, 0x00, 0xdd,
  0x34, 0xd5, 0x2f, 0x3a, 0xda, 0x2d, 0xbf, 0x20, 0x0f, 0xcd, 0xb2, 0x00,
  0xf0, 0xd0, 0x35, 0xb4, 0x40, 0xf2, 0xed, 0xc2, 0xca, 0xff, 0x3d, 0xab,
  0x0f, 0xd9, 0xc5, 0xcb, 0x4e, 0x3d, 0x36, 0xd7, 0xb4, 0x00, 0xba, 0xd4,
  0xe4, 0xe4, 0xc8, 0xbe, 0x5b, 0xaf, 0x2c, 0x62, 0x35, 0x9c, 0xc1, 0x47,
  0xf6, 0x38, 0x23, 0x2a, 0xd1, 0xb4, 0x00, 0xc6, 0x4d, 0x3b, 0xbe, 0xd0,
  0x00, 0xfb, 0x2a, 0xe8, 0x99, 0xb5, 0xbb, 0xca, 0x07, 0xe4, 0x9e, 0xcf,
  0xd6, 0x4b, 0x79, 0x9c, 0x47, 0x55, 0x00, 0xf1, 0xde, 0xf3, 0xb1, 0x4f,
  0x75, 0xd0, 0x59, 0x55, 0xd0, 0xfc, 0x43, 0x00, 0xdd, 0x60, 0xaa, 0x3b,
  0x22, 0xba, 0xce, 0x74, 0xec, 0x78, 0x43, 0xaf, 0xd2, 0xc8, 0xfc, 0x09,
  0xd4, 0xb8, 0x21, 0xf1, 0xc4, 0x00, 0xbc, 0xf5, 0xbb, 0x3e, 0x7f, 0xef,
  0xbd, 0xcb, 0x45, 0xaa, 0xd4, 0xd7, 0xcc, 0x27, 0xd7, 0x43, 0x34, 0x92,
  0xf1, 0xca, 0x00, 0xf2, 0x30, 0xa7, 0x36, 0x40, 0x00, 0x99, 0xbb, 0x07,
  0x3d, 0x40, 0x3d, 0xdb, 0xf7, 0x14, 0xef, 0xd7, 0x2e, 0x26, 0xdf, 0x2c,
  0x30, 0x28, 0x00, 0xae, 0xe1, 0x56, 0x1f, 0xdb, 0x03, 0xdc, 0x3b, 0xa7,
  0xde, 0xb9, 0x3a, 0x00, 0xaf, 0xd9, 0x35, 0x4c, 0xb8, 0x44, 0x0d, 0xee,
  0x0c, 0xcb, 0xe3, 0x3b, 0xbc, 0xf5, 0x3c, 0xb5, 0xc5, 0xff, 0xef, 0x54,
  0x3a, 0x00, 0x59, 0xb6, 0x47, 0x44, 0xd5, 0xd0, 0xd2, 0x53, 0xad, 0x27,
  0xab, 0x1f, 0x4f, 0xb0, 0xfb, 0xe0, 0xb1, 0x36, 0x3c, 0x3f, 0x00, 0xc6,
  0x07, 0xc9, 0x1b, 0xf8, 0x00, 0x64, 0x5b, 0x00, 0xd7, 0x4e, 0x2b, 0xd5,
  0xdb, 0xd9, 0x63, 0xb6, 0x35, 0x10, 0xde, 0x0c, 0x08, 0x0d, 0x00, 0x5d,
  0xcb, 0xc3, 0x1b, 0xb9, 0xfa, 0xdc, 0xd0, 0xcf, 0xd3, 0x69, 0xd4, 0x00,
  0x50, 0x03, 0x28, 0xe1, 0xc0, 0x34, 0xd7, 0xec, 0xcc, 0xd0, 0xcc, 0x4c,
  0x5b, 0xfa, 0xbe, 0x51, 0xd8, 0x29, 0xdd, 0xbf, 0x0f, 0x00, 0x40, 0x5d,
  0x40, 0xcd, 0x00, 0x53, 0xb9, 0x28, 0xcb, 0xf4, 0x45, 0x43, 0x2d, 0xb4,
  0xd6, 0xc0, 0xf3, 0x14, 0xc1, 0x39, 0x00, 0x57, 0xc5, 0x12, 0xce, 0x3d,
  0x00, 0x10, 0xf7, 0x55, 0x13, 0xd3, 0xc7, 0x25, 0x58, 0x5c, 0xf4, 0x44,
  0x1b, 0xc5, 0xfb, 0xff, 0xd7, 0xb6, 0x00, 0x23, 0x3b, 0x1f, 0xe4, 0xdd,
  0xb5, 0x43, 0xde, 0x13, 0x66, 0x13, 0xff, 0x00, 0x35, 0xf2, 0xce, 0xd9,
  0x27, 0xdb, 0x60, 0xe7, 0x66, 0xef, 0xd4, 0x15, 0x02, 0x67, 0x3b, 0x29,
  0x3a, 0xdc, 0xd6, 0x28, 0x38, 0x00, 0xf1, 0x25, 0xd9, 0xc9, 0xe2, 0x2d,
  0x4d, 0xfe, 0x16, 0xde, 0x08, 0x21, 0xf6, 0x24, 0x65, 0xdf, 0x06, 0xf8,
  0x3b, 0x12, 0x00, 0x2a, 0x00, 0x00, 0x00, 0x00, 0x52, 0xd1, 0xfe, 0xff,
  0x04, 0x00, 0x00, 0x00, 0x00, 0x2c, 0x01, 0x00, 0x0f, 0x12, 0x1d, 0xfc,
  0x04, 0xf1, 0x18, 0xea, 0xef, 0x0b, 0x0a, 0xf2, 0x0d, 0x1b, 0xfc, 0xe7,
  0x21, 0x1e, 0x07, 0xf6, 0x1b, 0x0d, 0x0e, 0x18, 0x05, 0x04, 0x01, 0x04,
  0xef, 0xf9, 0xfe, 0xfd, 0xf7, 0xe9, 0x07, 0xf2, 0xf9, 0xeb, 0xf9, 0xf9,
  0xdf, 0x26, 0x32, 0x09, 0x01, 0xfc, 0x2b, 0xec, 0xe1, 0x20, 0x16, 0x05,
  0x02, 0x1f, 0x0f, 0x06, 0x1f, 0x1d, 0x01, 0xff, 0x18, 0x0e, 0xfb, 0x02,
  0x01, 0x00, 0x00, 0x09, 0x0c, 0x0d, 0x10, 0xed, 0xfb, 0xfe, 0xf5, 0xf2,
  0x07, 0xf9, 0xfb, 0x01, 0xda, 0x20, 0x17, 0x03, 0xfd, 0xfb, 0x1d, 0x1e,
  0xf9, 0x1e, 0x0d, 0x03, 0xee, 0x25, 0x08, 0x24, 0x13, 0x15, 0x2b, 0x04,
  0x0a, 0x1e, 0x19, 0x14, 0xfa, 0x0d, 0xeb, 0x0d, 0x0a, 0x1d, 0xfa, 0x04,
  0xf2, 0x0b, 0xfc, 0xff, 0x01, 0x06, 0xfd, 0x05, 0xe4, 0xe1, 0x0c, 0x02,
  0xed, 0xd2, 0x1e, 0x30, 0x1c, 0x15, 0x07, 0x1a, 0xe8, 0xfd, 0x01, 0x2e,
  0xfd, 0xfc, 0x27, 0x02, 0xfd, 0x06, 0xfb, 0x19, 0xf4, 0xec, 0x03, 0x09,
  0x0c, 0xf9, 0x13, 0x06, 0xfc, 0x04, 0x03, 0x05, 0x06, 0x0a, 0x00, 0x06,
  0xcb, 0xe0, 0xf5, 0x1f, 0xed, 0xca, 0x15, 0xf9, 0x07, 0xde, 0xff, 0x0f,
  0x08, 0xd6, 0x0f, 0x12, 0xf8, 0xf5, 0x12, 0x0d, 0x0f, 0xfd, 0xff, 0x14,
  0xf6, 0xf5, 0xf9, 0x18, 0x0e, 0xf8, 0xfb, 0x06, 0xf4, 0xfe, 0xfc, 0xff,
  0xf7, 0xfa, 0x0c, 0x03, 0xb7, 0xdb, 0xfc, 0xda, 0xf4, 0x0c, 0xde, 0xdd,
  0x1b, 0xe5, 0xfc, 0x06, 0xf9, 0xd9, 0x01, 0xeb, 0xf4, 0xf4, 0x07, 0x0e,
  0xee, 0xf5, 0x13, 0x0d, 0xec, 0xe9, 0x02, 0xff, 0xff, 0xed, 0xfa, 0x05,
  0xf8, 0xfb, 0xec, 0xfc, 0x00, 0xf2, 0x03, 0xf7, 0xea, 0xfe, 0xf2, 0xd3,
  0xef, 0x1d, 0xe8, 0xc6, 0x07, 0xd2, 0xeb, 0xe0, 0xfd, 0xbd, 0xf1, 0xf0,
  0xfa, 0xea, 0x08, 0xf1, 0xee, 0xf4, 0x0d, 0xfd, 0xe7, 0xf7, 0xf9, 0xfc,
  0xfa, 0xda, 0xfb, 0xfd, 0xfc, 0xed, 0x05, 0xfa, 0xfe, 0xe3, 0xfc, 0xfa,
  0x22, 0x19, 0xd0, 0xed, 0xf8, 0x20, 0xf8, 0xd1, 0xfe, 0xee, 0xf3, 0xee,
  0xec, 0xe8, 0x06, 0xf6, 0xe1, 0xf8, 0xfc, 0xe8, 0xf6, 0xf3, 0xfc, 0xff,
  0xe9, 0xec, 0xf4, 0xfd, 0xef, 0xe1, 0xfa, 0xfa, 0xf5, 0xe0, 0x02, 0xfb,
  0xfe, 0xe1, 0x01, 0xf1, 0x1a, 0x37, 0x08, 0x0d, 0xf7, 0x08, 0xfe, 0xbd,
  0xdc, 0x1c, 0x0f, 0xe1, 0xea, 0xfa, 0x05, 0xe2, 0xfd, 0xfe, 0xee, 0xe5,
  0x02, 0xe9, 0x02, 0xf8, 0xf9, 0xf4, 0xf2, 0x09, 0xf7, 0xfd, 0x02, 0xf6,
  0xeb, 0x0c, 0x04, 0xf7, 0xfd, 0xf0, 0xfd, 0xf3, 0x13, 0x31, 0x19, 0x05,
  0x0b, 0x15, 0x1b, 0xd5, 0xba, 0x43, 0x1b, 0xdd, 0xf2, 0x2f, 0x07, 0xe6,
  0x18, 0x10, 0xf3, 0xf2, 0x0c, 0xfc, 0x09, 0xf7, 0x03, 0x07, 0x06, 0x05,
  0x03, 0x06, 0xfe, 0x05, 0xf9, 0xfb, 0x09, 0xfe, 0xfc, 0x03, 0x02, 0xfb,
  0xf6, 0x2c, 0x2b, 0x08, 0xed, 0xfd, 0x22, 0x13, 0xdc, 0x31, 0x1f, 0xf9,
  0xf8, 0x2a, 0xf4, 0xfd, 0x0d, 0x24, 0xf0, 0xea, 0x0d, 0x12, 0x0e, 0xf0,
  0x17, 0x07, 0x05, 0xff, 0x09, 0x12, 0x09, 0x09, 0x06, 0x19, 0xff, 0xfe,
  0x03, 0x08, 0x01, 0xff, 0xf2, 0x1d, 0x12, 0x0d, 0xea, 0xf0, 0x25, 0x3e,
  0xea, 0x17, 0x0b, 0x0a, 0xf3, 0x1c, 0x0b, 0x12, 0x06, 0x14, 0x11, 0xf1,
  0xed, 0x04, 0xfd, 0xed, 0x0d, 0xf3, 0x0e, 0x0a, 0xfc, 0xfb, 0x08, 0x11,
  0x08, 0x00, 0x15, 0x09, 0x05, 0x05, 0x0b, 0xfe, 0xdf, 0xeb, 0x12, 0x0e,
  0xfc, 0xc5, 0x23, 0x23, 0x0e, 0x13, 0xea, 0x2e, 0xf2, 0x04, 0x06, 0x22,
  0x0c, 0xfe, 0x08, 0x07, 0xf0, 0xfb, 0xfc, 0xf8, 0x15, 0xf3, 0xf9, 0x04,
  0x00, 0xf4, 0x0a, 0x00, 0xfa, 0xed, 0xf7, 0xfb, 0x01, 0xec, 0xfe, 0xf8,
  0xd0, 0xe2, 0xfc, 0xe9, 0xf9, 0x01, 0x00, 0xeb, 0x03, 0xdb, 0xeb, 0x14,
  0xf4, 0xf2, 0x08, 0xe7, 0xe3, 0xec, 0x10, 0x08, 0x06, 0xf9, 0xf9, 0x01,
  0x06, 0x01, 0xf9, 0x06, 0xe9, 0xef, 0xf2, 0x00, 0x0b, 0xfb, 0xfa, 0xf6,
  0xff, 0xe6, 0xf8, 0xf5, 0xd5, 0xfb, 0xfb, 0xd8, 0xf9, 0x17, 0xdb, 0xd2,
  0x01, 0xd1, 0x06, 0xe2, 0x0c, 0xf0, 0xfd, 0xe7, 0xdf, 0x10, 0xfc, 0xee,
  0xf2, 0xf7, 0xf5, 0xf6, 0xe8, 0xf7, 0xee, 0xf5, 0xf3, 0xeb, 0xef, 0xf6,
  0x0d, 0x01, 0xf9, 0xec, 0x0b, 0xf7, 0x03, 0xf5, 0xf1, 0x15, 0xe1, 0xa8,
  0xff, 0x24, 0xd3, 0xc7, 0x01, 0xf3, 0xea, 0xd2, 0x0a, 0xe8, 0x07, 0xf3,
  0xea, 0x0a, 0x06, 0xe9, 0xf7, 0xf7, 0xf6, 0xe5, 0xfc, 0xf1, 0xf4, 0xe3,
  0xf2, 0xc8, 0xf9, 0xf8, 0x08, 0xe9, 0xfe, 0xea, 0xff, 0xec, 0xff, 0xfb,
  0x2e, 0x07, 0xe7, 0x00, 0x01, 0x24, 0x20, 0xcf, 0x02, 0xf9, 0xec, 0xe9,
  0x0c, 0xf2, 0x08, 0xe6, 0x00, 0x0c, 0xfa, 0xfe, 0xff, 0xf7, 0x0c, 0xf6,
  0xea, 0xf5, 0xfd, 0xfc, 0x01, 0xf5, 0xf5, 0xf9, 0xfe, 0x16, 0xf9, 0xf3,
  0x01, 0x06, 0xf9, 0xfc, 0x28, 0x1c, 0x0c, 0x04, 0xef, 0xef, 0x1e, 0xd5,
  0xf3, 0xff, 0x0c, 0xf2, 0x05, 0x05, 0xff, 0xeb, 0xee, 0xf5, 0x13, 0x17,
  0x0e, 0xf8, 0xfc, 0x17, 0xf5, 0x03, 0xfe, 0x0c, 0x0f, 0xfa, 0xf9, 0x00,
  0x09, 0x07, 0x03, 0x03, 0x03, 0x18, 0x0a, 0x02, 0x00, 0x04, 0x17, 0xfe,
  0xfe, 0xfd, 0x13, 0xf9, 0xe6, 0x13, 0x1c, 0xdc, 0x08, 0x2c, 0xff, 0xf6,
  0xf3, 0x14, 0xfb, 0x03, 0x06, 0x00, 0x04, 0xfe, 0xfb, 0x06, 0xff, 0xfd,
  0x03, 0x18, 0x06, 0xfa, 0x07, 0x1c, 0x07, 0xf7, 0xfb, 0x05, 0x02, 0x01,
  0x04, 0xff, 0x13, 0xeb, 0xee, 0xf3, 0x0f, 0x08, 0xf2, 0xf8, 0xf9, 0xf4,
  0x15, 0x17, 0x02, 0x09, 0xf9, 0x20, 0x06, 0xfc, 0x0c, 0xf9, 0x02, 0xed,
  0x1e, 0x22, 0x19, 0x0c, 0x08, 0x09, 0xf3, 0x02, 0x00, 0x1b, 0x05, 0xff,
  0x04, 0x0b, 0xfd, 0x08, 0xf7, 0xf5, 0xe9, 0x1f, 0xf1, 0xec, 0xef, 0x1c,
  0xea, 0x00, 0x00, 0x22, 0x02, 0x05, 0x10, 0x0d, 0xf1, 0x0d, 0x11, 0xfc,
  0x05, 0x1d, 0xef, 0xfb, 0x08, 0x1c, 0x0c, 0x05, 0x09, 0x0a, 0x01, 0x02,
  0xff, 0x0a, 0x0a, 0x06, 0x03, 0x02, 0x05, 0xf5, 0xfb, 0xf0, 0xe6, 0x10,
  0xf0, 0xed, 0x0e, 0x05, 0xf2, 0xea, 0xfd, 0x0a, 0x02, 0xf4, 0x02, 0x0b,
  0x00, 0x0c, 0x0e, 0x0a, 0xf7, 0x11, 0xf8, 0xfd, 0xfc, 0x08, 0x04, 0x04,
  0xfc, 0xec, 0xfa, 0xfc, 0x02, 0xff, 0x00, 0xfd, 0x07, 0x07, 0x02, 0x02,
  0xf1, 0xe1, 0xe3, 0x12, 0xf4, 0xf2, 0xfa, 0xe9, 0x00, 0xe3, 0xf2, 0xf9,
  0x01, 0xe3, 0xe9, 0x1b, 0x05, 0x06, 0x0f, 0xee, 0x01, 0x24, 0xf7, 0xfd,
  0xf1, 0x17, 0xfd, 0xec, 0x02, 0xfd, 0xfb, 0xee, 0xfb, 0x03, 0xfd, 0xfa,
  0xff, 0x0b, 0x04, 0xf9, 0xd3, 0xea, 0xf2, 0xd4, 0xf0, 0xf7, 0xde, 0xc3,
  0xf7, 0xe3, 0xec, 0xe7, 0xf3, 0xe7, 0xf9, 0xe4, 0xf8, 0xef, 0x06, 0xf5,
  0x03, 0xfa, 0xfd, 0xfe, 0x00, 0xf0, 0xff, 0xec, 0x00, 0xf4, 0xf6, 0xfa,
  0xf4, 0xfc, 0x00, 0xf8, 0xfe, 0x01, 0x02, 0xff, 0xcc, 0x00, 0xef, 0xdc,
  0x13, 0xf6, 0xf6, 0xfa, 0x11, 0x0b, 0xff, 0x1e, 0x0f, 0x17, 0xff, 0x0f,
  0x0f, 0x1f, 0x0e, 0x0b, 0x17, 0x1d, 0x00, 0x18, 0x0b, 0x16, 0x0b, 0xff,
  0x04, 0x1b, 0x03, 0x06, 0x27, 0x16, 0x19, 0x02, 0x0a, 0x10, 0x05, 0x0e,
  0xc1, 0x1e, 0x1b, 0x04, 0x09, 0x2a, 0xd9, 0x0e, 0x15, 0x25, 0xf3, 0x29,
  0xd9, 0x1c, 0x0b, 0x1d, 0xfc, 0x2c, 0x12, 0x1c, 0x0c, 0x00, 0x16, 0x01,
  0xf5, 0x10, 0x0d, 0xfa, 0xf9, 0x18, 0x02, 0xfc, 0x02, 0x0a, 0x0f, 0x06,
  0x02, 0xf9, 0x06, 0x00, 0xd3, 0x1e, 0x05, 0x02, 0xfe, 0x3d, 0xf0, 0x38,
  0x24, 0x11, 0xe7, 0x33, 0xf8, 0x21, 0xfa, 0x22, 0xfa, 0x2d, 0xf9, 0x06,
  0x09, 0x1e, 0xec, 0xff, 0xfb, 0x20, 0x1b, 0x08, 0x0c, 0x10, 0x0c, 0xfe,
  0xf8, 0x1f, 0x06, 0xf7, 0x06, 0x14, 0x0a, 0xf9, 0xdb, 0x0a, 0x1a, 0x0a,
  0xea, 0x19, 0xee, 0x3f, 0x01, 0x17, 0xf2, 0x31, 0xfa, 0x07, 0x0f, 0x28,
  0xe6, 0x04, 0x15, 0x19, 0xfb, 0x11, 0xee, 0x07, 0xfc, 0xfe, 0x07, 0x05,
  0x11, 0x06, 0x07, 0xf8, 0xfe, 0x06, 0x0f, 0x00, 0x0a, 0x12, 0x09, 0xf0,
  0xc6, 0xec, 0x20, 0x02, 0xf0, 0x14, 0xfd, 0x2d, 0x12, 0x16, 0xe5, 0x29,
  0xeb, 0xf9, 0xfb, 0x27, 0xfd, 0x14, 0x04, 0x0c, 0xfc, 0x02, 0xf7, 0x1c,
  0xf8, 0xf5, 0x00, 0x12, 0x11, 0x12, 0x0e, 0xff, 0xf7, 0xfe, 0x10, 0xf8,
  0x09, 0x0f, 0x01, 0xfc, 0xd6, 0xfd, 0x15, 0x0b, 0xf9, 0x23, 0xf7, 0x0c,
  0x01, 0x0e, 0xd5, 0x20, 0xfe, 0x04, 0xee, 0x1c, 0xeb, 0xf5, 0xff, 0xfb,
  0xec, 0x0f, 0xea, 0x11, 0x01, 0xf4, 0xf5, 0xf6, 0x0e, 0x08, 0x00, 0x05,
  0xf9, 0x0e, 0xf4, 0x00, 0x04, 0x02, 0x0d, 0xfa, 0xf2, 0xf3, 0x0a, 0x10,
  0xef, 0x1a, 0x07, 0x29, 0x02, 0x1a, 0xf0, 0x33, 0x0f, 0x16, 0xf3, 0x07,
  0x09, 0xf2, 0x05, 0xe9, 0x03, 0x0a, 0x12, 0xff, 0x01, 0x0b, 0x03, 0xfc,
  0x06, 0x14, 0xfb, 0x0b, 0xfd, 0x22, 0xf1, 0x06, 0x0a, 0x2c, 0x16, 0xf5,
  0x0f, 0x06, 0x24, 0xf7, 0xfc, 0x39, 0xf2, 0x15, 0x12, 0x1a, 0xfc, 0x1c,
  0xf4, 0x07, 0xee, 0xec, 0x02, 0xec, 0xf0, 0xea, 0xf8, 0xf9, 0x08, 0x03,
  0x13, 0x12, 0xfd, 0xfd, 0x0e, 0x1c, 0x03, 0x11, 0x00, 0x1e, 0x11, 0x14,
  0x14, 0x1b, 0x19, 0xfe, 0x0b, 0x01, 0x0f, 0x08, 0xf9, 0x43, 0x08, 0x1d,
  0x02, 0xf4, 0xf1, 0x20, 0xf3, 0xef, 0x04, 0x1b, 0x0a, 0xf7, 0xf6, 0xfe,
  0x08, 0xf3, 0x00, 0x1e, 0x11, 0xf5, 0xfd, 0x16, 0x10, 0xf8, 0x09, 0x20,
  0x01, 0x13, 0x0b, 0x10, 0x08, 0x0c, 0x05, 0x02, 0x33, 0x02, 0x09, 0x0f,
  0xf5, 0x39, 0x19, 0x25, 0xf9, 0xeb, 0xf2, 0x3a, 0x14, 0xd7, 0x08, 0xf9,
  0x0a, 0xcc, 0xfa, 0xf0, 0xf7, 0xea, 0x0b, 0xf9, 0x01, 0xdd, 0x15, 0x05,
  0xf9, 0xe9, 0x0b, 0x01, 0xf7, 0xfc, 0x0c, 0x05, 0x0b, 0xf7, 0xfb, 0x04,
  0x24, 0xeb, 0x0b, 0x02, 0x14, 0x2e, 0x03, 0x02, 0xed, 0xd9, 0x0e, 0x06,
  0x14, 0xd6, 0x10, 0xe4, 0x0b, 0xdc, 0x0b, 0xf9, 0x09, 0xed, 0x07, 0xf5,
  0x02, 0xf9, 0x05, 0x07, 0x1b, 0xd9, 0x04, 0x03, 0x09, 0xec, 0x0c, 0xfe,
  0xfc, 0xfc, 0x01, 0x00, 0x25, 0xeb, 0x0d, 0x0b, 0x00, 0x19, 0x13, 0xfe,
  0xe4, 0xe6, 0x02, 0xf2, 0x17, 0xd1, 0x02, 0x0d, 0x14, 0xd8, 0x15, 0xf8,
  0x07, 0xfc, 0xfe, 0x02, 0x02, 0xf1, 0x04, 0x02, 0x01, 0xf3, 0x03, 0x03,
  0x0f, 0xe4, 0xf5, 0x02, 0x04, 0xf5, 0x0f, 0x0a, 0x31, 0xf7, 0x1a, 0x0d,
  0xf8, 0x1d, 0x09, 0xea, 0xd1, 0xed, 0x06, 0xfb, 0x01, 0xd1, 0x05, 0x0b,
  0x06, 0xd8, 0x1c, 0x16, 0x01, 0xe1, 0x02, 0xf9, 0x18, 0xf5, 0x05, 0xfb,
  0xff, 0x06, 0x08, 0x03, 0x10, 0x01, 0x00, 0xf8, 0x0e, 0x12, 0x01, 0xfe,
  0x1f, 0xd2, 0x12, 0x19, 0xf8, 0x19, 0x2d, 0xdf, 0xdf, 0xdf, 0x03, 0xf7,
  0x0c, 0xce, 0xf8, 0xfb, 0xde, 0xe1, 0x0a, 0xf8, 0xfd, 0xe6, 0x16, 0x02,
  0x09, 0xfb, 0x0a, 0x13, 0xf2, 0xf5, 0x05, 0x0a, 0x09, 0xe6, 0x1b, 0x03,
  0x04, 0x08, 0x0a, 0xfd, 0x19, 0xfa, 0x1f, 0x1c, 0x0d, 0x0d, 0x24, 0xdb,
  0xe0, 0xdb, 0x0d, 0x02, 0x09, 0xd7, 0x09, 0xfe, 0xf1, 0xe5, 0x02, 0x06,
  0x06, 0xd3, 0xf8, 0x0b, 0xf2, 0xc7, 0x01, 0x0e, 0xf4, 0xe1, 0x0f, 0xf6,
  0x09, 0xdf, 0xf6, 0x0e, 0x06, 0xea, 0x09, 0x0e, 0x2c, 0xd7, 0x1d, 0x31,
  0xfd, 0xf2, 0x20, 0xd5, 0xe7, 0xac, 0xf9, 0xf7, 0x02, 0xc4, 0x12, 0xf0,
  0xf1, 0xee, 0xf9, 0x06, 0xfa, 0xe5, 0x02, 0x00, 0xef, 0xd5, 0x11, 0x03,
  0xf7, 0xe9, 0x05, 0x01, 0x00, 0xe0, 0x03, 0x0c, 0x00, 0xe9, 0x04, 0x08,
  0x12, 0xd1, 0x15, 0x21, 0xfe, 0xfb, 0x40, 0xe0, 0xea, 0xc2, 0x0c, 0xf2,
  0x02, 0xe4, 0x11, 0xfb, 0xe8, 0xf1, 0xff, 0x0b, 0x03, 0xef, 0xfa, 0xfc,
  0xf4, 0xf7, 0x11, 0x09, 0xf1, 0xe6, 0x07, 0x09, 0xfe, 0xea, 0xf6, 0x0a,
  0xfe, 0xf1, 0xfd, 0x00, 0x18, 0xd6, 0xf6, 0x1a, 0x05, 0xeb, 0x33, 0xf1,
  0xf0, 0xcd, 0xfb, 0xf4, 0x01, 0xe1, 0x0d, 0x08, 0xfd, 0xf1, 0xf8, 0xf7,
  0x11, 0xf6, 0x09, 0xfc, 0xf9, 0xfa, 0x08, 0xfd, 0xee, 0xfe, 0xf9, 0x02,
  0xfd, 0x01, 0x02, 0xf1, 0xfe, 0xf6, 0xf3, 0xfa, 0xff, 0xd5, 0xfc, 0x13,
  0xf9, 0xe5, 0x13, 0xe1, 0x13, 0xdd, 0xf7, 0xf5, 0xf8, 0xf6, 0x0f, 0x0d,
  0x07, 0xfb, 0xf5, 0xf5, 0x0d, 0xfa, 0x13, 0x04, 0x0c, 0xf4, 0x00, 0x02,
  0xfa, 0xe7, 0xfd, 0xf8, 0x05, 0xf9, 0xfe, 0xfc, 0xff, 0xef, 0x05, 0xff,
  0xdf, 0xd2, 0xdf, 0x09, 0xf2, 0xcd, 0xff, 0xf3, 0x04, 0xf2, 0xff, 0xe1,
  0xf8, 0x0c, 0x09, 0xfd, 0x0c, 0xfc, 0xef, 0x00, 0xf9, 0x0d, 0x00, 0xf9,
  0xfb, 0xde, 0xf2, 0xfa, 0xf3, 0xfb, 0xfb, 0xf1, 0xfc, 0xf0, 0xf5, 0xf1,
  0x06, 0xf4, 0xfd, 0xf5, 0xf9, 0xd6, 0xfb, 0xe6, 0xf4, 0xd3, 0x06, 0xf6,
  0x00, 0x02, 0x0d, 0xf1, 0xec, 0x13, 0xff, 0x03, 0x16, 0x04, 0x00, 0xf2,
  0xf9, 0x16, 0x05, 0x05, 0xf0, 0xfa, 0xfe, 0xfc, 0xfa, 0x04, 0x04, 0xed,
  0x07, 0xfe, 0xe8, 0xf3, 0x09, 0x00, 0xff, 0xfc, 0xeb, 0xf0, 0xfe, 0xe8,
  0x00, 0xd0, 0xfb, 0x04, 0xfe, 0xf5, 0x07, 0xed, 0xed, 0xfe, 0x02, 0x02,
  0x13, 0xf4, 0x10, 0xf6, 0x03, 0x08, 0x15, 0x18, 0xf2, 0xf7, 0x00, 0x00,
  0xf3, 0xf5, 0x10, 0xfe, 0xfa, 0xfd, 0x0b, 0x03, 0x01, 0xf7, 0xfc, 0xfd,
  0xe8, 0xff, 0x0a, 0xe9, 0x00, 0xd9, 0xf1, 0xf9, 0x02, 0xf9, 0x09, 0xf9,
  0x00, 0xf1, 0xfb, 0x00, 0x07, 0x0e, 0x0a, 0x09, 0xfa, 0xf7, 0x0b, 0x10,
  0xf5, 0xcd, 0x0b, 0x08, 0xf1, 0xf7, 0x15, 0x04, 0xff, 0xef, 0x10, 0x02,
  0xff, 0xff, 0x01, 0x03, 0xe4, 0xe2, 0xfc, 0xe1, 0x00, 0xdb, 0xf9, 0xf5,
  0x01, 0x09, 0x0e, 0xf8, 0xfa, 0xfa, 0x0a, 0x08, 0xff, 0x0c, 0x06, 0x08,
  0x02, 0x00, 0x0c, 0x10, 0xf6, 0xf4, 0xfd, 0x0b, 0x09, 0xfe, 0x0d, 0x06,
  0x00, 0x0a, 0x05, 0x05, 0x02, 0x00, 0x02, 0x09, 0xf6, 0x1c, 0xf0, 0x13,
  0xf6, 0x15, 0xec, 0xf9, 0x07, 0xf4, 0x08, 0xdf, 0x0e, 0x12, 0xf6, 0xf6,
  0xff, 0x13, 0x00, 0x0a, 0xfd, 0xff, 0x0f, 0x00, 0xf7, 0x05, 0x01, 0x07,
  0xf8, 0xf7, 0xf5, 0xfe, 0xfa, 0xfb, 0xfe, 0xfa, 0x00, 0x08, 0x00, 0xfb,
  0xf4, 0xe8, 0xf1, 0xef, 0xf4, 0x0e, 0xf1, 0xff, 0x0b, 0xfa, 0x04, 0xe9,
  0xfc, 0x03, 0x00, 0x03, 0xf0, 0x01, 0xfb, 0x02, 0xfa, 0xf7, 0x09, 0x02,
  0xf6, 0xfd, 0x04, 0x0b, 0x00, 0x00, 0x0c, 0xf9, 0xfd, 0x0f, 0xf5, 0xfc,
  0x05, 0x0f, 0xfb, 0x00, 0xf2, 0xd2, 0xfb, 0xe9, 0xf5, 0xf5, 0xe9, 0xe9,
  0x13, 0xec, 0x04, 0xf3, 0x03, 0x02, 0x08, 0xf8, 0xdc, 0xe6, 0xfc, 0x07,
  0xee, 0xd6, 0x09, 0xfe, 0x01, 0xf6, 0xfe, 0x12, 0x01, 0xe9, 0x01, 0xfe,
  0xf5, 0xfb, 0x06, 0xff, 0x02, 0x15, 0x02, 0x00, 0xef, 0x11, 0xf9, 0xcb,
  0x09, 0x1b, 0xf8, 0x0d, 0x04, 0xe6, 0x00, 0xeb, 0xf5, 0xf9, 0xe7, 0xef,
  0xea, 0xf7, 0x08, 0xff, 0xfd, 0xee, 0xf8, 0xf9, 0x08, 0xfe, 0x03, 0x0d,
  0x01, 0x01, 0x09, 0xfd, 0x10, 0x01, 0xfe, 0xfd, 0x08, 0x13, 0xf4, 0xff,
  0x0e, 0x11, 0xe2, 0xd4, 0xfd, 0x16, 0xda, 0x09, 0xf9, 0xd9, 0xfe, 0xed,
  0xfc, 0xe4, 0xf1, 0xf5, 0xed, 0xf1, 0x0c, 0xfa, 0xfb, 0xea, 0xf3, 0xf8,
  0xfe, 0xf4, 0xf5, 0x0d, 0x12, 0x10, 0x03, 0xf6, 0x00, 0xf1, 0xf4, 0xf5,
  0x0a, 0x03, 0xfe, 0xfa, 0x07, 0xe6, 0xee, 0xc5, 0xf4, 0x25, 0xe0, 0xfb,
  0x02, 0xc5, 0x08, 0xe0, 0xee, 0xe6, 0x05, 0xfe, 0x02, 0xfc, 0xff, 0x04,
  0xe5, 0xf2, 0x05, 0x0d, 0x02, 0x00, 0x01, 0x03, 0x00, 0xf5, 0xfb, 0xf7,
  0xfa, 0xf3, 0xfc, 0x02, 0x04, 0xf7, 0x05, 0xf4, 0x07, 0xcd, 0xeb, 0xfa,
  0xf6, 0x01, 0xe1, 0xe7, 0x08, 0xe3, 0xe4, 0xee, 0xe9, 0xf0, 0x02, 0xff,
  0xfe, 0xf5, 0xff, 0xfc, 0xeb, 0xef, 0x01, 0x07, 0xfa, 0xff, 0x01, 0x01,
  0x00, 0xfc, 0xf8, 0x02, 0xfb, 0xf0, 0xfa, 0xf6, 0x08, 0xf3, 0xf9, 0xf8,
  0x24, 0xd3, 0x00, 0x13, 0x05, 0xf1, 0xe2, 0xea, 0xf5, 0xf0, 0xe2, 0xf6,
  0xdb, 0xe5, 0xfb, 0xf5, 0xf5, 0xf0, 0xf8, 0x02, 0xf2, 0xf2, 0xec, 0xf1,
  0xec, 0x02, 0xfe, 0xf6, 0x00, 0xf7, 0xf0, 0xf0, 0xfc, 0xee, 0xf9, 0xf6,
  0xfe, 0x06, 0x06, 0xe9, 0x1d, 0xf3, 0xfe, 0x2d, 0x11, 0xfb, 0xdb, 0xfd,
  0xea, 0x16, 0xfa, 0xf1, 0xe4, 0xe7, 0xf4, 0xe5, 0xda, 0x02, 0xe8, 0xec,
  0xea, 0xed, 0xfe, 0xe2, 0xf6, 0xf5, 0xf7, 0xee, 0x09, 0xf8, 0xfe, 0xf7,
  0x0c, 0xfd, 0xfd, 0xf7, 0xee, 0x00, 0xfc, 0xef, 0x3b, 0xf9, 0x0d, 0x00,
  0x16, 0xeb, 0x0a, 0xe0, 0xe9, 0x0e, 0x00, 0xe2, 0xf2, 0xf4, 0x09, 0xd2,
  0xec, 0xf9, 0xee, 0xe8, 0xec, 0x07, 0xec, 0xf5, 0xe9, 0xeb, 0xf6, 0xff,
  0xed, 0xe4, 0xf7, 0xf7, 0xfe, 0xf7, 0x04, 0xfa, 0xfe, 0x0a, 0x01, 0xfc,
  0x23, 0xf7, 0x1f, 0xea, 0xf6, 0xf1, 0x1e, 0xd6, 0xea, 0x1d, 0x19, 0xc9,
  0x04, 0xf6, 0x0b, 0xdd, 0xef, 0xee, 0xf7, 0xe3, 0x12, 0xfc, 0xff, 0xfa,
  0xf5, 0xef, 0xf8, 0xfa, 0xf7, 0xf4, 0xfe, 0xfa, 0x0a, 0xfb, 0xff, 0x08,
  0x0a, 0xf5, 0xfb, 0x02, 0x2c, 0x20, 0x15, 0xfe, 0xf6, 0xe9, 0x26, 0xed,
  0xde, 0x2a, 0x0f, 0xe3, 0x03, 0xef, 0x0a, 0xdb, 0xfd, 0xf2, 0xf7, 0x03,
  0x1b, 0xfa, 0xf4, 0xf0, 0xf6, 0xe9, 0xf9, 0xfd, 0x07, 0xfb, 0xf7, 0xfb,
  0x05, 0xfb, 0xfe, 0xfa, 0xfe, 0xf8, 0xf6, 0xff, 0x19, 0x1c, 0x0f, 0x20,
  0xf9, 0xf2, 0x19, 0x22, 0xf0, 0x1f, 0x03, 0xe0, 0x02, 0xf9, 0xfe, 0xfd,
  0x13, 0xed, 0xf3, 0x07, 0x16, 0x05, 0x1d, 0x0a, 0x02, 0xfc, 0xf7, 0xfe,
  0xff, 0xeb, 0x01, 0xf4, 0xf7, 0x06, 0x0b, 0x00, 0x06, 0xf4, 0xfe, 0x00,
  0xfd, 0x08, 0x12, 0x24, 0xfe, 0x09, 0x25, 0x25, 0xe6, 0x09, 0xff, 0xeb,
  0x08, 0x18, 0x1e, 0x06, 0x22, 0x14, 0xf6, 0xfd, 0x10, 0x05, 0x06, 0xf1,
  0xfa, 0xf2, 0x11, 0xf9, 0x03, 0x03, 0x0d, 0xf7, 0x11, 0x13, 0x15, 0xfd,
  0x0d, 0x05, 0x04, 0xfa, 0xe4, 0xf1, 0x2d, 0xdb, 0xec, 0x05, 0x36, 0x25,
  0xe6, 0x19, 0x04, 0x00, 0x16, 0x0d, 0x08, 0x07, 0x11, 0x0e, 0xf9, 0xe9,
  0xfd, 0x0d, 0x26, 0x0c, 0xee, 0x01, 0x02, 0x10, 0xfa, 0x02, 0xfe, 0x06,
  0xff, 0x07, 0x18, 0x07, 0x07, 0x09, 0x01, 0xfc, 0xcd, 0xe1, 0x18, 0xf3,
  0xe9, 0x09, 0x49, 0x1d, 0xf2, 0x0a, 0xed, 0xff, 0xe9, 0x1d, 0xfa, 0x0e,
  0xe2, 0x06, 0x0c, 0xec, 0xff, 0x09, 0x17, 0x03, 0xf9, 0x10, 0x0e, 0xff,
  0xf5, 0x00, 0x01, 0x00, 0x00, 0xf8, 0x12, 0xfa, 0x02, 0x10, 0x07, 0xf9,
  0xd8, 0xde, 0x0b, 0xff, 0xe3, 0xf0, 0x1e, 0x1f, 0xf4, 0xee, 0xf6, 0x17,
  0xfa, 0x2b, 0x0f, 0x1b, 0xe8, 0x21, 0xf2, 0x0f, 0xf6, 0x33, 0x03, 0x23,
  0x03, 0x12, 0xfc, 0x06, 0xf7, 0x13, 0xfe, 0x00, 0x11, 0x0d, 0xff, 0xfc,
  0x00, 0x01, 0x06, 0xf5, 0xd4, 0xd9, 0xeb, 0x00, 0xf2, 0xd9, 0x0b, 0x0c,
  0x03, 0xf3, 0x01, 0x0f, 0x03, 0x0b, 0x1a, 0x0e, 0xed, 0x21, 0x25, 0xfd,
  0xe3, 0x2d, 0x09, 0x12, 0x00, 0x18, 0x08, 0x16, 0xfb, 0x0d, 0xf3, 0xf9,
  0xf7, 0x0a, 0x02, 0x03, 0xfa, 0x0a, 0xfb, 0xfb, 0xcd, 0xcf, 0xf5, 0xdb,
  0xf7, 0xd4, 0xf6, 0xea, 0xfa, 0xfa, 0xf7, 0x05, 0xf6, 0x02, 0x08, 0x24,
  0xf7, 0x1d, 0x0c, 0x0a, 0xe4, 0x34, 0x03, 0x18, 0xf9, 0x1a, 0x02, 0x08,
  0xed, 0x12, 0xf3, 0xfe, 0x03, 0xfb, 0x0b, 0xfc, 0xfa, 0x00, 0xfd, 0xee,
  0xcc, 0xe1, 0xcd, 0xb5, 0x07, 0xea, 0xdf, 0xd2, 0x02, 0x0b, 0x01, 0xe5,
  0xf6, 0x1c, 0xff, 0x01, 0xf8, 0x33, 0x15, 0x06, 0xf4, 0x2c, 0xef, 0x01,
  0x0c, 0x34, 0xfc, 0xfa, 0xfe, 0x20, 0xec, 0xfa, 0x0b, 0x1e, 0x04, 0xf9,
  0xff, 0x0b, 0xf1, 0xf5, 0xd8, 0x01, 0xe9, 0xc1, 0xf0, 0xf3, 0xd7, 0xe0,
  0xfe, 0x02, 0x0c, 0xeb, 0xf2, 0x0e, 0xf8, 0xf6, 0xea, 0x26, 0x11, 0xfd,
  0xf3, 0x3d, 0xf9, 0x0b, 0xf4, 0x2c, 0xf9, 0xf5, 0xf2, 0x29, 0xf1, 0x08,
  0xf8, 0x0a, 0x03, 0x03, 0xfd, 0x11, 0xfd, 0xfd, 0xd5, 0xf8, 0xe8, 0xe9,
  0xf3, 0xf0, 0xe8, 0xdd, 0x11, 0xfa, 0x04, 0x06, 0xf4, 0x06, 0xfb, 0xf6,
  0xe5, 0x1a, 0x11, 0xf1, 0xf0, 0x38, 0x01, 0xfe, 0xfd, 0x31, 0xf5, 0xf3,
  0xfa, 0x34, 0xfe, 0xfb, 0xff, 0x23, 0xf7, 0xf1, 0xfd, 0x09, 0x04, 0xfc,
  0xe9, 0xf3, 0xee, 0xd9, 0xf6, 0xfe, 0xda, 0xcf, 0x15, 0x0b, 0x10, 0xff,
  0xf4, 0x18, 0xf9, 0xf1, 0xf3, 0x0a, 0xfa, 0xf7, 0xf6, 0x1a, 0xfc, 0xfa,
  0x12, 0x2c, 0x01, 0xf2, 0xfa, 0x28, 0x08, 0x0a, 0xf6, 0x20, 0x08, 0xf5,
  0x00, 0x05, 0x0e, 0xfb, 0xfe, 0xfd, 0xf1, 0xfb, 0xf7, 0xf8, 0xe7, 0xfc,
  0x0f, 0x14, 0xea, 0xe9, 0x1b, 0xf7, 0x00, 0xf4, 0xf4, 0x00, 0xfe, 0xff,
  0xfb, 0x08, 0xfe, 0xfc, 0x0c, 0x1d, 0xf6, 0x05, 0xf5, 0x19, 0x05, 0x02,
  0xf3, 0x05, 0xfa, 0xf5, 0xff, 0xf6, 0xfe, 0x0f, 0xf7, 0x08, 0x15, 0xe2,
  0x01, 0x1a, 0xf1, 0x02, 0x00, 0xdc, 0xff, 0x05, 0x0c, 0xe8, 0xfc, 0x08,
  0x06, 0xe7, 0xfc, 0xff, 0xf4, 0xe7, 0x02, 0xfb, 0x06, 0xf8, 0x00, 0x08,
  0x04, 0xf4, 0x01, 0x08, 0xfc, 0xfc, 0xfe, 0x01, 0x02, 0xee, 0xfa, 0xf9,
  0x0c, 0xfc, 0x07, 0x08, 0x07, 0x18, 0xf8, 0x13, 0xf1, 0xee, 0xfb, 0xee,
  0x12, 0xeb, 0xf8, 0xf9, 0x0a, 0xe9, 0x01, 0xf5, 0xf4, 0xeb, 0x04, 0xfd,
  0x04, 0xfa, 0xf9, 0x0e, 0xfe, 0xf7, 0x01, 0x06, 0xf8, 0xee, 0x06, 0xfe,
  0xfb, 0xec, 0x03, 0x00, 0xef, 0x08, 0xfd, 0x08, 0xfa, 0x04, 0xf0, 0xf8,
  0xf0, 0xf1, 0xea, 0xf0, 0x05, 0xfe, 0xef, 0xfd, 0x09, 0xf8, 0xfc, 0xf8,
  0xf8, 0xe0, 0x00, 0xf8, 0xff, 0xe2, 0xfc, 0x04, 0x04, 0xf6, 0x05, 0x01,
  0xfd, 0xe6, 0x01, 0x01, 0xfd, 0xec, 0x00, 0x01, 0xf0, 0xe8, 0xe4, 0x0a,
  0xfb, 0x08, 0xef, 0xf0, 0xe5, 0xf3, 0xf9, 0xee, 0xf8, 0xdd, 0xf9, 0x0b,
  0x00, 0xed, 0x03, 0xfb, 0x02, 0xf2, 0x07, 0xff, 0xf8, 0xf1, 0x04, 0x00,
  0x09, 0xe2, 0x03, 0x00, 0xf6, 0xf3, 0xfe, 0x02, 0xfa, 0xf2, 0xfe, 0x01,
  0xe9, 0xf1, 0x01, 0xe7, 0xf1, 0x10, 0xdf, 0xf9, 0xf2, 0xf8, 0xf2, 0xe6,
  0xee, 0xd2, 0xfc, 0xf7, 0xf1, 0xe4, 0xff, 0xfd, 0x16, 0xd6, 0xfe, 0x01,
  0xf1, 0xe1, 0xfe, 0x01, 0xfb, 0xe2, 0x04, 0x04, 0xf7, 0xe5, 0xfd, 0x04,
  0xfa, 0xed, 0xfb, 0x06, 0xe8, 0xf9, 0xe2, 0xe6, 0xe7, 0xf0, 0xdd, 0xe7,
  0xeb, 0xfe, 0x03, 0xf2, 0xf5, 0xe8, 0xf9, 0xfa, 0xf0, 0xd8, 0xf8, 0xfe,
  0xfc, 0xed, 0xf2, 0x01, 0xed, 0xed, 0x00, 0x01, 0x0b, 0xef, 0x03, 0x04,
  0x0e, 0xff, 0x02, 0x00, 0xf1, 0xe8, 0x04, 0x09, 0xdf, 0xec, 0xf0, 0xe5,
  0xf8, 0xe9, 0xf0, 0xd1, 0xf2, 0x15, 0x16, 0xff, 0xfa, 0xfe, 0xfa, 0x07,
  0x04, 0xf9, 0xf6, 0x0c, 0x01, 0xef, 0xf3, 0x02, 0xf9, 0xf9, 0x0a, 0x05,
  0x02, 0xeb, 0xf6, 0x03, 0x03, 0xf4, 0x03, 0x08, 0xe7, 0xf4, 0x04, 0x06,
  0xdc, 0x04, 0x17, 0xfe, 0xee, 0xdd, 0xe7, 0xcb, 0xd7, 0xf3, 0xf4, 0x15,
  0xf5, 0x10, 0x0b, 0x01, 0xf2, 0xed, 0x0a, 0xfd, 0xed, 0xff, 0x09, 0x08,
  0xf4, 0x04, 0x05, 0x05, 0x0b, 0x03, 0x15, 0x03, 0x00, 0x13, 0x07, 0x08,
  0xfd, 0x0a, 0x05, 0x0b, 0x04, 0x06, 0x1d, 0x14, 0xe8, 0xe3, 0xf5, 0xc7,
  0xf3, 0x02, 0xfa, 0x13, 0xef, 0x0d, 0xf9, 0xe0, 0xfa, 0xe1, 0x03, 0xf5,
  0xff, 0x1a, 0x0d, 0x0b, 0xfa, 0x08, 0xff, 0x0a, 0x03, 0x05, 0x06, 0x0e,
  0xf2, 0x00, 0x09, 0x0d, 0xff, 0xf7, 0x08, 0x11, 0x05, 0x06, 0x1f, 0x0d,
  0xfe, 0x04, 0x19, 0xa0, 0x12, 0xfb, 0xe1, 0xf6, 0x08, 0x0e, 0xf3, 0xf6,
  0xef, 0x1a, 0xf5, 0xfe, 0xff, 0x26, 0x08, 0x11, 0x11, 0x22, 0x05, 0x03,
  0x09, 0x17, 0x0d, 0x02, 0x09, 0x13, 0xf4, 0x08, 0xf1, 0x02, 0x07, 0x07,
  0x06, 0x16, 0x20, 0xec, 0xf3, 0xf8, 0x25, 0xcc, 0x01, 0x01, 0xc4, 0x13,
  0x12, 0x06, 0xf6, 0x14, 0x04, 0xf5, 0xf3, 0x10, 0xf9, 0x19, 0x0c, 0x1c,
  0x1a, 0xf8, 0x03, 0x02, 0xfa, 0x17, 0x04, 0x11, 0xf3, 0xfc, 0x16, 0x06,
  0xe3, 0xfe, 0x13, 0x0b, 0x06, 0x12, 0x16, 0x0a, 0xf6, 0x04, 0x2e, 0xd4,
  0x19, 0x20, 0xbd, 0x1c, 0x1c, 0xfb, 0xdb, 0x0a, 0x10, 0x25, 0x02, 0x24,
  0x09, 0x35, 0x07, 0x25, 0x1b, 0x15, 0x0b, 0xfd, 0xee, 0x1e, 0xfe, 0x12,
  0xf7, 0x04, 0x00, 0x17, 0xf0, 0xf5, 0x0a, 0xf9, 0xf2, 0x04, 0x0c, 0x15,
  0x07, 0xf5, 0x19, 0xd0, 0x13, 0x0a, 0xc6, 0x40, 0x1f, 0x1a, 0xf0, 0xf2,
  0x13, 0x10, 0xd1, 0x1f, 0x0e, 0x2b, 0xf4, 0x08, 0x0e, 0x31, 0x08, 0xfe,
  0xf6, 0xf8, 0x0b, 0x0c, 0xe1, 0xfb, 0x0a, 0xfd, 0xe1, 0xeb, 0x06, 0xf1,
  0x04, 0x0e, 0x04, 0x04, 0xe3, 0xf0, 0x1c, 0xc9, 0x11, 0x07, 0xcc, 0x3c,
  0x13, 0x0a, 0xf6, 0x22, 0x11, 0x05, 0xe6, 0x32, 0x15, 0x22, 0x0f, 0x1d,
  0x1a, 0x2f, 0xfa, 0x02, 0xf3, 0x12, 0xfd, 0xf6, 0xf3, 0x0f, 0x03, 0xf6,
  0xfe, 0x19, 0xf7, 0xfa, 0xf2, 0x13, 0xeb, 0x0d, 0x00, 0xfd, 0x07, 0xea,
  0x05, 0x19, 0xf2, 0x2c, 0x3c, 0x1d, 0x03, 0x18, 0x11, 0x29, 0xe2, 0x29,
  0x18, 0x18, 0x0a, 0x26, 0x1a, 0x21, 0x1e, 0x10, 0xfb, 0x28, 0x0f, 0x0e,
  0xff, 0x19, 0xf8, 0x01, 0xf9, 0xfa, 0xf7, 0x03, 0xef, 0x1c, 0xeb, 0x17,
  0x09, 0xf7, 0xe9, 0xf3, 0x0e, 0x05, 0xf5, 0x49, 0x28, 0x1b, 0x0d, 0x2f,
  0x11, 0x2a, 0xf3, 0x39, 0x25, 0x20, 0xf4, 0x25, 0x13, 0x17, 0x04, 0x1b,
  0x02, 0x0f, 0xfc, 0x0f, 0x04, 0x0b, 0xf8, 0x09, 0xf8, 0xff, 0xf1, 0x08,
  0x06, 0x18, 0xe4, 0x19, 0x0b, 0xdf, 0x04, 0xfc, 0x03, 0xf8, 0xfc, 0x41,
  0x12, 0x1b, 0x01, 0x03, 0x04, 0x0b, 0xee, 0x1a, 0x20, 0xfe, 0xfb, 0x10,
  0x1d, 0x04, 0xf4, 0xf9, 0x00, 0x11, 0x07, 0x06, 0x0d, 0x11, 0x03, 0xf4,
  0x02, 0x1c, 0xee, 0x00, 0xfc, 0x0e, 0xf3, 0x10, 0x12, 0xcc, 0xbf, 0x24,
  0x16, 0x00, 0x13, 0x38, 0x0a, 0x07, 0x05, 0xf1, 0xfd, 0x0b, 0xf8, 0x2e,
  0x06, 0x0b, 0xfb, 0xff, 0x14, 0xfb, 0x10, 0xff, 0xf4, 0x0f, 0xf5, 0x1a,
  0x09, 0xf5, 0xfc, 0x0c, 0x06, 0x12, 0xf1, 0x05, 0xfc, 0xfd, 0xe1, 0x21,
  0x09, 0xe5, 0xb5, 0x1f, 0x0e, 0xe8, 0x04, 0x20, 0x12, 0xeb, 0x04, 0xfb,
  0xfd, 0x06, 0x07, 0x17, 0x08, 0xff, 0xf4, 0x08, 0x18, 0xfc, 0xfb, 0xfa,
  0xf7, 0xfb, 0xf2, 0x0b, 0xfb, 0x02, 0x09, 0xf9, 0x05, 0x07, 0xf6, 0x06,
  0xf2, 0xe1, 0xf1, 0x1b, 0x08, 0xdc, 0xbd, 0x1f, 0x10, 0xf9, 0xf4, 0x05,
  0x0e, 0xf8, 0xf8, 0x0c, 0x05, 0x13, 0xea, 0x22, 0x15, 0x0c, 0xf9, 0xf8,
  0x14, 0x01, 0xfc, 0xfa, 0xee, 0x00, 0xf8, 0x09, 0xf4, 0xf9, 0x06, 0x02,
  0x08, 0x08, 0x03, 0x06, 0xea, 0xf1, 0xe2, 0x0a, 0x0e, 0xbf, 0xc5, 0x1f,
  0x10, 0x09, 0x06, 0xfd, 0xf8, 0x05, 0x0c, 0x00, 0xfc, 0x08, 0xf4, 0x1d,
  0x06, 0xf3, 0xfc, 0x12, 0x04, 0xec, 0x02, 0xf2, 0x03, 0xf0, 0xf9, 0x05,
  0xfd, 0xf9, 0x0b, 0x03, 0x00, 0xef, 0x0b, 0x01, 0xdd, 0xed, 0x05, 0x27,
  0x04, 0xe6, 0xa3, 0x25, 0x1f, 0xf5, 0xf4, 0x0e, 0xec, 0x09, 0x0e, 0x12,
  0xf6, 0xf0, 0x02, 0x03, 0x10, 0xf8, 0xf5, 0xfd, 0xf2, 0x00, 0x07, 0xf4,
  0x02, 0x0c, 0x08, 0x07, 0xf6, 0x0a, 0x0f, 0x01, 0x03, 0x0c, 0xfa, 0xfe,
  0xd0, 0xc8, 0xe2, 0x3a, 0xfa, 0xc5, 0x81, 0x1e, 0x04, 0xcd, 0xe4, 0xf2,
  0xee, 0xf1, 0x0b, 0x02, 0xf6, 0xe6, 0xf7, 0xe9, 0x21, 0xf2, 0xf4, 0x01,
  0xfa, 0xf2, 0xfa, 0xff, 0x12, 0xfd, 0x04, 0x05, 0x04, 0xf6, 0x0b, 0xfd,
  0x05, 0xfd, 0xfc, 0xfe, 0xe1, 0xda, 0xe5, 0x15, 0xf3, 0xcc, 0xbe, 0x04,
  0xee, 0xcc, 0xef, 0xf7, 0xf9, 0xf5, 0xf6, 0xfd, 0x07, 0xdb, 0x06, 0x03,
  0xfb, 0xf6, 0xfb, 0xea, 0x03, 0xf1, 0x05, 0x14, 0xff, 0x08, 0x00, 0xff,
  0xfe, 0xff, 0x0b, 0xff, 0xf7, 0xfa, 0x06, 0xfc, 0x00, 0x00, 0x00, 0x00,
  0x00, 0x00, 0x00, 0x00, 0x00, 0x00, 0x00, 0x00, 0x00, 0x00, 0x00, 0x00,
  0x00, 0x00, 0x00, 0x00, 0x00, 0x00, 0x00, 0x00, 0x00, 0x00, 0x00, 0x00,
  0x00, 0x00, 0x00, 0x00, 0x00, 0x00, 0x00, 0x00, 0x00, 0x00, 0x00, 0x00,
  0x00, 0x00, 0x00, 0x00, 0x00, 0x00, 0x00, 0x00, 0x00, 0x00, 0x00, 0x00,
  0x00, 0x00, 0x00, 0x00, 0x00, 0x00, 0x00, 0x00, 0x00, 0x00, 0x00, 0x00,
  0x00, 0x00, 0x00, 0x00, 0x00, 0x00, 0x00, 0x00, 0x00, 0x00, 0x00, 0x00,
  0x00, 0x00, 0x00, 0x00, 0x00, 0x00, 0x00, 0x00, 0x00, 0x00, 0x00, 0x00,
  0x00, 0x00, 0x00, 0x00, 0x00, 0x00, 0x00, 0x00, 0x00, 0x00, 0x00, 0x00,
  0x00, 0x00, 0x00, 0x00, 0x00, 0x00, 0x00, 0x00, 0x00, 0x00, 0x00, 0x00,
  0x00, 0x00, 0x00, 0x00, 0x00, 0x00, 0x00, 0x00, 0x00, 0x00, 0x00, 0x00,
  0x00, 0x00, 0x00, 0x00, 0x00, 0x00, 0x00, 0x00, 0x00, 0x00, 0x00, 0x00,
  0x00, 0x00, 0x00, 0x00, 0x00, 0x00, 0x00, 0x00, 0x00, 0x00, 0x00, 0x00,
  0x00, 0x00, 0x00, 0x00, 0x00, 0x00, 0x00, 0x00, 0x00, 0x00, 0x00, 0x00,
  0x00, 0x00, 0x00, 0x00, 0x00, 0x00, 0x00, 0x00, 0x00, 0x00, 0x00, 0x00,
  0x00, 0x00, 0x00, 0x00, 0x00, 0x00, 0x00, 0x00, 0x00, 0x00, 0x00, 0x00,
  0x00, 0x00, 0x00, 0x00, 0x00, 0x00, 0x00, 0x00, 0x00, 0x00, 0x00, 0x00,
  0x00, 0x00, 0x00, 0x00, 0x00, 0x00, 0x00, 0x00, 0x00, 0x00, 0x00, 0x00,
  0x00, 0x00, 0x00, 0x00, 0x00, 0x00, 0x00, 0x00, 0x00, 0x00, 0x00, 0x00,
  0x00, 0x00, 0x00, 0x00, 0x00, 0x00, 0x00, 0x00, 0x00, 0x00, 0x00, 0x00,
  0x00, 0x00, 0x00, 0x00, 0x00, 0x00, 0x00, 0x00, 0x00, 0x00, 0x00, 0x00,
  0x00, 0x00, 0x00, 0x00, 0x00, 0x00, 0x00, 0x00, 0x00, 0x00, 0x00, 0x00,
  0x00, 0x00, 0x00, 0x00, 0x00, 0x00, 0x00, 0x00, 0x00, 0x00, 0x00, 0x00,
  0x00, 0x00, 0x00, 0x00, 0x00, 0x00, 0x00, 0x00, 0x00, 0x00, 0x00, 0x00,
  0x00, 0x00, 0x00, 0x00, 0x00, 0x00, 0x00, 0x00, 0x00, 0x00, 0x00, 0x00,
  0x00, 0x00, 0x00, 0x00, 0x00, 0x00, 0x00, 0x00, 0x00, 0x00, 0x00, 0x00,
  0x00, 0x00, 0x00, 0x00, 0x00, 0x00, 0x00, 0x00, 0x00, 0x00, 0x00, 0x00,
  0x00, 0x00, 0x00, 0x00, 0x00, 0x00, 0x00, 0x00, 0x00, 0x00, 0x00, 0x00,
  0x00, 0x00, 0x00, 0x00, 0x00, 0x00, 0x00, 0x00, 0x00, 0x00, 0x00, 0x00,
  0x00, 0x00, 0x00, 0x00, 0x00, 0x00, 0x00, 0x00, 0x00, 0x00, 0x00, 0x00,
  0x00, 0x00, 0x00, 0x00, 0x00, 0x00, 0x00, 0x00, 0x00, 0x00, 0x00, 0x00,
  0x00, 0x00, 0x00, 0x00, 0x00, 0x00, 0x00, 0x00, 0x00, 0x00, 0x00, 0x00,
  0x00, 0x00, 0x00, 0x00, 0x00, 0x00, 0x00, 0x00, 0x00, 0x00, 0x00, 0x00,
  0x00, 0x00, 0x00, 0x00, 0x00, 0x00, 0x00, 0x00, 0x00, 0x00, 0x00, 0x00,
  0x00, 0x00, 0x00, 0x00, 0x00, 0x00, 0x00, 0x00, 0x00, 0x00, 0x00, 0x00,
  0x00, 0x00, 0x00, 0x00, 0x00, 0x00, 0x00, 0x00, 0x00, 0x00, 0x00, 0x00,
  0x00, 0x00, 0x00, 0x00, 0x00, 0x00, 0x00, 0x00, 0x00, 0x00, 0x00, 0x00,
  0x00, 0x00, 0x00, 0x00, 0x00, 0x00, 0x00, 0x00, 0x00, 0x00, 0x00, 0x00,
  0x00, 0x00, 0x00, 0x00, 0x00, 0x00, 0x00, 0x00, 0x00, 0x00, 0x00, 0x00,
  0x00, 0x00, 0x00, 0x00, 0x00, 0x00, 0x00, 0x00, 0x00, 0x00, 0x00, 0x00,
  0x00, 0x00, 0x00, 0x00, 0x00, 0x00, 0x00, 0x00, 0x00, 0x00, 0x00, 0x00,
  0x00, 0x00, 0x00, 0x00, 0x00, 0x00, 0x00, 0x00, 0x00, 0x00, 0x00, 0x00,
  0x00, 0x00, 0x00, 0x00, 0x00, 0x00, 0x00, 0x00, 0x00, 0x00, 0x00, 0x00,
  0x00, 0x00, 0x00, 0x00, 0x00, 0x00, 0x00, 0x00, 0x00, 0x00, 0x00, 0x00,
  0x00, 0x00, 0x00, 0x00, 0x00, 0x00, 0x00, 0x00, 0x00, 0x00, 0x00, 0x00,
  0x00, 0x00, 0x00, 0x00, 0x00, 0x00, 0x00, 0x00, 0x00, 0x00, 0x00, 0x00,
  0x00, 0x00, 0x00, 0x00, 0x00, 0x00, 0x00, 0x00, 0x00, 0x00, 0x00, 0x00,
  0x00, 0x00, 0x00, 0x00, 0x00, 0x00, 0x00, 0x00, 0x00, 0x00, 0x00, 0x00,
  0x00, 0x00, 0x00, 0x00, 0x00, 0x00, 0x00, 0x00, 0x00, 0x00, 0x00, 0x00,
  0x00, 0x00, 0x00, 0x00, 0x00, 0x00, 0x00, 0x00, 0x00, 0x00, 0x00, 0x00,
  0x00, 0x00, 0x00, 0x00, 0x00, 0x00, 0x00, 0x00, 0x00, 0x00, 0x00, 0x00,
  0x00, 0x00, 0x00, 0x00, 0x00, 0x00, 0x00, 0x00, 0x00, 0x00, 0x00, 0x00,
  0x00, 0x00, 0x00, 0x00, 0x00, 0x00, 0x00, 0x00, 0x00, 0x00, 0x00, 0x00,
  0x00, 0x00, 0x00, 0x00, 0x00, 0x00, 0x00, 0x00, 0x00, 0x00, 0x00, 0x00,
  0x00, 0x00, 0x00, 0x00, 0x00, 0x00, 0x00, 0x00, 0x00, 0x00, 0x00, 0x00,
  0x00, 0x00, 0x00, 0x00, 0x00, 0x00, 0x00, 0x00, 0x00, 0x00, 0x00, 0x00,
  0x00, 0x00, 0x00, 0x00, 0x00, 0x00, 0x00, 0x00, 0x00, 0x00, 0x00, 0x00,
  0x00, 0x00, 0x00, 0x00, 0x00, 0x00, 0x00, 0x00, 0x00, 0x00, 0x00, 0x00,
  0x00, 0x00, 0x00, 0x00, 0x00, 0x00, 0x00, 0x00, 0x00, 0x00, 0x00, 0x00,
  0x00, 0x00, 0x00, 0x00, 0x00, 0x00, 0x00, 0x00, 0x00, 0x00, 0x00, 0x00,
  0x00, 0x00, 0x00, 0x00, 0x00, 0x00, 0x00, 0x00, 0x00, 0x00, 0x00, 0x00,
  0x00, 0x00, 0x00, 0x00, 0x00, 0x00, 0x00, 0x00, 0x00, 0x00, 0x00, 0x00,
  0x00, 0x00, 0x00, 0x00, 0x00, 0x00, 0x00, 0x00, 0x00, 0x00, 0x00, 0x00,
  0x00, 0x00, 0x00, 0x00, 0x00, 0x00, 0x00, 0x00, 0x00, 0x00, 0x00, 0x00,
  0x00, 0x00, 0x00, 0x00, 0x00, 0x00, 0x00, 0x00, 0x00, 0x00, 0x00, 0x00,
  0x00, 0x00, 0x00, 0x00, 0x00, 0x00, 0x00, 0x00, 0x00, 0x00, 0x00, 0x00,
  0x00, 0x00, 0x00, 0x00, 0x00, 0x00, 0x00, 0x00, 0x00, 0x00, 0x00, 0x00,
  0x00, 0x00, 0x00, 0x00, 0x00, 0x00, 0x00, 0x00, 0x00, 0x00, 0x00, 0x00,
  0x00, 0x00, 0x00, 0x00, 0x00, 0x00, 0x00, 0x00, 0x00, 0x00, 0x00, 0x00,
  0x00, 0x00, 0x00, 0x00, 0x00, 0x00, 0x00, 0x00, 0x00, 0x00, 0x00, 0x00,
  0x00, 0x00, 0x00, 0x00, 0x00, 0x00, 0x00, 0x00, 0x00, 0x00, 0x00, 0x00,
  0x00, 0x00, 0x00, 0x00, 0x00, 0x00, 0x00, 0x00, 0x00, 0x00, 0x00, 0x00,
  0x00, 0x00, 0x00, 0x00, 0x00, 0x00, 0x00, 0x00, 0x00, 0x00, 0x00, 0x00,
  0x00, 0x00, 0x00, 0x00, 0x00, 0x00, 0x00, 0x00, 0x00, 0x00, 0x00, 0x00,
  0x00, 0x00, 0x00, 0x00, 0x00, 0x00, 0x00, 0x00, 0x00, 0x00, 0x00, 0x00,
  0x00, 0x00, 0x00, 0x00, 0x00, 0x00, 0x00, 0x00, 0x00, 0x00, 0x00, 0x00,
  0x00, 0x00, 0x00, 0x00, 0x00, 0x00, 0x00, 0x00, 0x00, 0x00, 0x00, 0x00,
  0x00, 0x00, 0x00, 0x00, 0x00, 0x00, 0x00, 0x00, 0x00, 0x00, 0x00, 0x00,
  0x00, 0x00, 0x00, 0x00, 0x00, 0x00, 0x00, 0x00, 0x00, 0x00, 0x00, 0x00,
  0x00, 0x00, 0x00, 0x00, 0x00, 0x00, 0x00, 0x00, 0x00, 0x00, 0x00, 0x00,
  0x00, 0x00, 0x00, 0x00, 0x00, 0x00, 0x00, 0x00, 0xf0, 0x00, 0xee, 0xf8,
  0xf9, 0xf6, 0xef, 0xee, 0x02, 0xfb, 0x08, 0x0f, 0xf4, 0xe6, 0xff, 0x00,
  0x05, 0xeb, 0x05, 0xfa, 0xf1, 0xef, 0xef, 0x06, 0xfa, 0xe6, 0xff, 0xf1,
  0xfa, 0xfc, 0xf9, 0xfa, 0xf9, 0xff, 0xf9, 0xfa, 0x00, 0xf8, 0xfe, 0x04,
  0xe2, 0x03, 0xee, 0xf7, 0xf2, 0xfb, 0xeb, 0xf2, 0x03, 0xeb, 0xeb, 0x05,
  0xf5, 0xe9, 0xf3, 0xf0, 0xff, 0xed, 0x02, 0xf8, 0xf5, 0xf2, 0xfb, 0x04,
  0xf7, 0xfc, 0xf6, 0xef, 0x09, 0xfa, 0xf3, 0xf9, 0xf1, 0x0a, 0xf3, 0x04,
  0x06, 0x01, 0x02, 0xfc, 0xff, 0x0a, 0xfe, 0x0f, 0x03, 0x0d, 0xff, 0x12,
  0x1c, 0x13, 0xf7, 0xef, 0xfe, 0xf4, 0xfb, 0x05, 0xfd, 0xee, 0xfc, 0xf0,
  0x02, 0xf2, 0xf1, 0xfb, 0xf5, 0xec, 0xfb, 0xef, 0xf7, 0xfd, 0xf3, 0x03,
  0xf6, 0xef, 0x00, 0xff, 0xf8, 0xfa, 0x00, 0xfe, 0x0b, 0x1c, 0x12, 0xf1,
  0x09, 0x03, 0x07, 0xe9, 0x08, 0x0e, 0x13, 0x14, 0xd6, 0x03, 0xf7, 0xfb,
  0xfd, 0xf5, 0xf2, 0xf6, 0x02, 0xef, 0x01, 0xfc, 0xdd, 0xf5, 0xfd, 0xf7,
  0x0a, 0x17, 0xf5, 0xfa, 0x09, 0x24, 0x00, 0x03, 0x00, 0x04, 0x00, 0x03,
  0x00, 0xfd, 0x0e, 0xcb, 0xfa, 0x08, 0xd9, 0xd2, 0x03, 0x12, 0x30, 0x24,
  0xd1, 0xf7, 0x09, 0xfe, 0xeb, 0x00, 0x06, 0xdd, 0x00, 0xf6, 0x03, 0x00,
  0xf9, 0x10, 0xfd, 0xf0, 0x0b, 0x0c, 0xfb, 0x06, 0x00, 0x2c, 0x01, 0x06,
  0xf8, 0x24, 0x01, 0x0a, 0xe0, 0xe8, 0x1c, 0xd0, 0xeb, 0xf1, 0xea, 0xe2,
  0xf3, 0x0e, 0x32, 0x15, 0xde, 0xf9, 0x14, 0xe6, 0xf8, 0xec, 0x0d, 0xe8,
  0xee, 0xeb, 0x09, 0xfd, 0x02, 0xee, 0xfc, 0xf8, 0x0e, 0xfa, 0x10, 0x00,
  0x09, 0x02, 0x00, 0x08, 0x01, 0x03, 0xf4, 0x07, 0xd2, 0xd6, 0x14, 0xde,
  0xfa, 0xdd, 0xf3, 0x0e, 0xe6, 0xff, 0x3f, 0xf7, 0xe7, 0x09, 0x13, 0xe5,
  0xf8, 0x1e, 0x14, 0xea, 0xed, 0x12, 0xf5, 0xfd, 0x0a, 0xe6, 0xf7, 0x04,
  0x00, 0xee, 0x01, 0x0a, 0x10, 0xff, 0xfc, 0x11, 0x01, 0xf6, 0x0c, 0x0b,
  0xe4, 0xdf, 0x00, 0x05, 0xfe, 0xfa, 0x1a, 0x41, 0xf9, 0x0e, 0x4f, 0xd0,
  0xea, 0x1c, 0x12, 0xe2, 0x03, 0x15, 0x01, 0xf0, 0xed, 0x0b, 0xed, 0x02,
  0x0b, 0xf7, 0x07, 0x0c, 0xff, 0xe6, 0x04, 0x0d, 0x01, 0xee, 0x0c, 0x13,
  0xfc, 0xe6, 0x20, 0x05, 0x1f, 0xfa, 0xd6, 0x21, 0x06, 0xdf, 0x42, 0x2e,
  0x04, 0x0c, 0x2a, 0xb9, 0x0b, 0x2a, 0xfc, 0x12, 0x13, 0xfa, 0xfd, 0x07,
  0xf8, 0xe7, 0x02, 0xf1, 0xf6, 0xee, 0xff, 0x03, 0xfd, 0xed, 0xfe, 0xfd,
  0xf6, 0xd3, 0x04, 0xff, 0xfb, 0xe4, 0x00, 0x04, 0x2f, 0xff, 0xf4, 0x15,
  0x02, 0xf2, 0x0c, 0x1a, 0x1c, 0x18, 0x05, 0xdf, 0xf9, 0x1b, 0xf1, 0xf4,
  0xf4, 0xee, 0x02, 0x05, 0xf6, 0xfb, 0xf8, 0xf0, 0xed, 0xda, 0x00, 0xf5,
  0xf3, 0xe4, 0xfb, 0xf5, 0xdb, 0xce, 0x03, 0xf4, 0xfc, 0xcb, 0x01, 0xf7,
  0x2d, 0x18, 0xfa, 0x11, 0xf4, 0xef, 0x07, 0xef, 0x12, 0x1d, 0x0b, 0x0b,
  0xe5, 0xfb, 0x19, 0xe7, 0xf0, 0xe3, 0xf2, 0x00, 0xfd, 0xdb, 0x0b, 0xf2,
  0xeb, 0xe3, 0xf8, 0xfc, 0xe8, 0xee, 0x00, 0xf8, 0xf0, 0xe4, 0x05, 0x01,
  0xf9, 0xf8, 0x01, 0xff, 0xf7, 0xfd, 0xfe, 0xd9, 0xec, 0xf3, 0xdb, 0xc9,
  0xda, 0x07, 0x0d, 0x37, 0xec, 0xfe, 0x04, 0xdc, 0xf9, 0xee, 0xfb, 0xed,
  0xf7, 0x07, 0xf4, 0x00, 0xff, 0x21, 0xec, 0x03, 0x13, 0x0e, 0xfc, 0xfd,
  0x12, 0x16, 0xf7, 0xfe, 0xfd, 0x2c, 0xfb, 0x02, 0xd9, 0xff, 0x11, 0xb4,
  0xeb, 0xe9, 0xd8, 0xed, 0xdb, 0xf8, 0x2b, 0x2c, 0xdf, 0xe9, 0x2c, 0xe4,
  0xfb, 0x0a, 0x03, 0xd5, 0xf7, 0x0c, 0x05, 0x00, 0x0d, 0xff, 0x01, 0x05,
  0x16, 0x1b, 0xf8, 0x05, 0x16, 0x12, 0x04, 0x06, 0xf9, 0x26, 0x07, 0x11,
  0xcb, 0xd9, 0xfd, 0xd1, 0xee, 0xde, 0xf8, 0x05, 0xe5, 0x02, 0x27, 0xd6,
  0xdf, 0x04, 0x2c, 0xf6, 0x00, 0x11, 0x0c, 0xe9, 0x05, 0x2f, 0x02, 0x0b,
  0x1a, 0x19, 0x05, 0x08, 0x11, 0x0b, 0x0e, 0x0f, 0x0f, 0x0c, 0xeb, 0x02,
  0x0a, 0x11, 0x02, 0x0b, 0xe4, 0xe5, 0xe8, 0x04, 0xfe, 0xcf, 0x3d, 0x3c,
  0xe8, 0x0b, 0x26, 0xb6, 0xfa, 0x11, 0x0e, 0x07, 0x16, 0x1d, 0x28, 0x07,
  0xfe, 0x0d, 0xf4, 0x08, 0x16, 0x0a, 0x0d, 0xfc, 0x1a, 0x00, 0x0b, 0xf9,
  0x0e, 0xf5, 0x0a, 0xfa, 0xfb, 0xf7, 0xf9, 0x02, 0x25, 0x00, 0xdc, 0x1a,
  0xf9, 0xcf, 0x33, 0x3b, 0x07, 0x0d, 0x15, 0x98, 0x1c, 0x1a, 0x0f, 0xef,
  0x15, 0x04, 0xff, 0xfa, 0x08, 0x04, 0xf8, 0x03, 0xf7, 0xe6, 0xf3, 0xff,
  0xfc, 0xed, 0xff, 0x11, 0x0a, 0xd8, 0x05, 0x0c, 0xff, 0xf4, 0x0b, 0x07,
  0x40, 0x0c, 0xcc, 0x2d, 0xf2, 0xec, 0x18, 0x39, 0x12, 0x01, 0x21, 0xbb,
  0x10, 0x01, 0xed, 0x17, 0x06, 0xed, 0x05, 0x06, 0xf7, 0xe0, 0x08, 0xfd,
  0xf3, 0xe0, 0x02, 0x0a, 0xd8, 0xe6, 0x04, 0x03, 0xf5, 0xde, 0x01, 0xf5,
  0xfb, 0xf6, 0x03, 0x08, 0x2d, 0x0a, 0x09, 0x30, 0xf7, 0xfe, 0xfd, 0xc1,
  0x01, 0x0c, 0xfa, 0xcd, 0xf3, 0xec, 0xf8, 0x17, 0xea, 0xed, 0x08, 0xf1,
  0xf7, 0xe5, 0xf7, 0xf8, 0xf6, 0xdb, 0xed, 0x08, 0xed, 0xee, 0xed, 0x00,
  0x12, 0x03, 0x04, 0xf5, 0xff, 0xff, 0xf5, 0xfa, 0x00, 0xef, 0x08, 0xec,
  0xfb, 0x00, 0xf0, 0xdb, 0xe3, 0x04, 0x1e, 0x1e, 0xee, 0xe3, 0xfa, 0x12,
  0xe3, 0xe4, 0x16, 0xf6, 0xf5, 0xfe, 0x06, 0xf6, 0xf7, 0xf6, 0xf6, 0xf7,
  0x01, 0x03, 0xf6, 0xfe, 0xfb, 0xf9, 0xed, 0x04, 0xfd, 0x09, 0xf9, 0x05,
  0xd5, 0xfa, 0x18, 0xc2, 0x04, 0x0f, 0xd2, 0xfe, 0xd8, 0x02, 0x2b, 0x10,
  0xfd, 0x15, 0x0e, 0xfc, 0xf0, 0x0b, 0x06, 0xe0, 0xf6, 0x28, 0xfd, 0xf9,
  0xec, 0x15, 0x08, 0xff, 0x0e, 0x1c, 0xf4, 0x02, 0xec, 0x0d, 0x05, 0x03,
  0x00, 0x0a, 0x06, 0x0d, 0xcf, 0xf4, 0x0e, 0xd1, 0xfe, 0x0e, 0xf1, 0x2f,
  0xed, 0x0a, 0x37, 0xf1, 0xfc, 0x17, 0x12, 0xf3, 0x08, 0x1f, 0xfa, 0xed,
  0xee, 0x14, 0x0c, 0xfa, 0x07, 0x23, 0xf3, 0xf3, 0xfd, 0x29, 0xf7, 0xfb,
  0x07, 0x1f, 0xfe, 0x0b, 0x03, 0x2a, 0xfd, 0x09, 0xe9, 0xf6, 0xf7, 0xf9,
  0x02, 0xe9, 0x25, 0x0f, 0x09, 0x19, 0x26, 0xd0, 0x07, 0x01, 0x0f, 0xec,
  0xf7, 0x05, 0xf9, 0x0c, 0xde, 0xfa, 0x0c, 0x0e, 0x03, 0x07, 0x0f, 0x12,
  0x09, 0xf7, 0xfb, 0x05, 0xfd, 0xfe, 0x03, 0x16, 0xff, 0xfe, 0xfe, 0x0c,
  0x0d, 0x0f, 0xea, 0x00, 0x09, 0xcb, 0x32, 0x14, 0x1b, 0x24, 0x24, 0xba,
  0x10, 0x1c, 0x0f, 0x0d, 0x11, 0xfe, 0x0a, 0xea, 0xe2, 0xfd, 0xf7, 0xf9,
  0x03, 0x02, 0xf0, 0xf4, 0xf9, 0xfe, 0x03, 0x0c, 0x04, 0xf6, 0xfc, 0x0b,
  0xfd, 0xfb, 0xfc, 0x0f, 0x2f, 0x02, 0xdf, 0x3c, 0xfb, 0xef, 0x1b, 0x13,
  0x14, 0x04, 0x2f, 0xd4, 0x00, 0x15, 0x07, 0x09, 0xff, 0xf4, 0xff, 0xe7,
  0xe9, 0xf3, 0x06, 0xfc, 0xf8, 0xf6, 0x0e, 0xf5, 0x08, 0xf0, 0xff, 0x09,
  0xf7, 0xf3, 0xf7, 0x07, 0x02, 0xf9, 0x00, 0x11, 0x02, 0x00, 0x03, 0xef,
  0xf8, 0x00, 0x05, 0xf8, 0x08, 0x0c, 0x12, 0xf6, 0x04, 0xf3, 0xfc, 0xfd,
  0xfa, 0xeb, 0x02, 0xfb, 0x0b, 0xee, 0x02, 0xff, 0x01, 0xe8, 0x02, 0xf8,
  0xfa, 0x03, 0xfe, 0xfb, 0xeb, 0xfa, 0xf6, 0xff, 0xfc, 0xfa, 0x00, 0xf7,
  0xff, 0x07, 0x19, 0xe4, 0x00, 0xf3, 0x03, 0xf4, 0xf4, 0x10, 0x20, 0xf7,
  0xd6, 0xef, 0xf6, 0xf7, 0xeb, 0xf4, 0xfb, 0xf8, 0xf6, 0xd6, 0xfd, 0xfc,
  0xf8, 0xdc, 0xfe, 0xf8, 0x0c, 0xf7, 0x00, 0xf9, 0x02, 0xfb, 0xfe, 0xfa,
  0x03, 0xf5, 0x00, 0xff, 0xe6, 0xfc, 0x1e, 0x02, 0xf8, 0xe5, 0x13, 0x10,
  0xcd, 0x01, 0x4f, 0x05, 0xdb, 0xec, 0x0c, 0xed, 0x05, 0xff, 0xf3, 0xfa,
  0xfd, 0x10, 0x02, 0xf7, 0x04, 0xfc, 0xff, 0xf8, 0x12, 0x13, 0xfc, 0xfa,
  0x09, 0xf6, 0xfe, 0xff, 0x09, 0xfa, 0xfc, 0xfe, 0xe4, 0xed, 0x05, 0x0c,
  0xf6, 0xe7, 0x0c, 0x25, 0xe8, 0x1a, 0x30, 0xda, 0xed, 0x06, 0x15, 0xd7,
  0xfa, 0x16, 0xfe, 0xf0, 0x03, 0x0b, 0x0e, 0xfc, 0x00, 0x16, 0x00, 0xf6,
  0x0b, 0x0b, 0x10, 0xfb, 0xff, 0x04, 0x04, 0x02, 0x06, 0xf4, 0x09, 0xfd,
  0x06, 0x05, 0xfc, 0x33, 0x14, 0xea, 0x30, 0x2d, 0xff, 0x0e, 0x26, 0xce,
  0xea, 0xe2, 0x14, 0xff, 0x08, 0x03, 0x1f, 0xff, 0x19, 0xf3, 0xf8, 0xf8,
  0xfe, 0x06, 0xff, 0xfd, 0xfa, 0xfd, 0x05, 0x00, 0xe8, 0xdd, 0xff, 0xf8,
  0xfa, 0xe4, 0x07, 0xfc, 0x1b, 0x17, 0xe9, 0x15, 0x06, 0xf7, 0x30, 0x22,
  0x08, 0x15, 0x1a, 0xda, 0x09, 0xfc, 0xf8, 0xf9, 0xf8, 0x0b, 0x11, 0x04,
  0x03, 0xf0, 0xfb, 0xfc, 0xf6, 0xf4, 0xf7, 0xfe, 0xf4, 0xeb, 0xf9, 0xfa,
  0xf0, 0xde, 0x03, 0xfc, 0xfc, 0xec, 0xfe, 0xf6, 0x13, 0xf6, 0x02, 0x1b,
  0xf0, 0xf0, 0x12, 0xe5, 0xf5, 0xfc, 0x2d, 0xf9, 0x0a, 0xed, 0x1a, 0xf4,
  0xea, 0xef, 0x10, 0xf6, 0x01, 0xea, 0x08, 0x0e, 0xe3, 0xf3, 0xff, 0xf2,
  0x05, 0xef, 0xf7, 0xf3, 0xf3, 0xe2, 0x08, 0xfb, 0x01, 0xf4, 0xfb, 0xf9,
  0x03, 0xf9, 0x1d, 0xee, 0xf7, 0x08, 0x00, 0xcb, 0xde, 0x15, 0x30, 0x17,
  0xf1, 0xef, 0x1c, 0xdf, 0x02, 0xec, 0x13, 0xe2, 0xf7, 0x04, 0x08, 0xf6,
  0xe8, 0x05, 0xf6, 0xfb, 0xf1, 0xf1, 0xff, 0x05, 0xf3, 0xe1, 0xf5, 0xfa,
  0x04, 0xf9, 0x05, 0xf5, 0xcd, 0xe2, 0x0e, 0xc9, 0xea, 0xf1, 0xdc, 0xd9,
  0xd5, 0x0e, 0x1f, 0x0b, 0xf3, 0x10, 0x11, 0xdb, 0x0c, 0x19, 0x0d, 0xd6,
  0x13, 0x0e, 0x11, 0xfa, 0xea, 0x28, 0xfb, 0x03, 0xfe, 0x15, 0xfa, 0xfe,
  0xf7, 0x05, 0xf7, 0xf9, 0xfb, 0x07, 0x06, 0xfc, 0xbd, 0x07, 0xfe, 0xda,
  0xf0, 0xf3, 0x08, 0xf7, 0xe0, 0x0e, 0x36, 0xf5, 0xe9, 0x03, 0x11, 0xe7,
  0xfe, 0x06, 0x17, 0xe8, 0x0c, 0x15, 0x0d, 0x0b, 0xf9, 0x2a, 0xfb, 0x13,
  0x11, 0x0e, 0x0a, 0x0a, 0x06, 0xfa, 0x00, 0x07, 0x00, 0x10, 0xfd, 0x05,
  0xf1, 0x14, 0xf2, 0x14, 0x0b, 0xfd, 0x3c, 0x3c, 0xed, 0x25, 0x3b, 0xc7,
  0xdd, 0x10, 0x04, 0x00, 0x0b, 0x0a, 0x0e, 0xf8, 0x03, 0xf2, 0x02, 0x04,
  0xf9, 0xfc, 0xf3, 0x03, 0x15, 0x01, 0x08, 0x05, 0xf6, 0xf9, 0x00, 0x09,
  0x01, 0xf5, 0x02, 0xfe, 0x33, 0x05, 0xfd, 0x2e, 0xfa, 0xf3, 0x42, 0x22,
  0xea, 0x02, 0x2c, 0xcd, 0xfa, 0x27, 0x1f, 0x05, 0xff, 0x07, 0x03, 0xf8,
  0xf7, 0xe9, 0x18, 0xee, 0xee, 0xe7, 0xf7, 0x02, 0xe3, 0xe5, 0xfb, 0x00,
  0xf0, 0xd4, 0xf5, 0xff, 0x00, 0xe0, 0x0f, 0xfe, 0x30, 0x00, 0x0f, 0x0a,
  0x0b, 0x05, 0x12, 0xf3, 0xf2, 0xff, 0x27, 0xf5, 0x01, 0xfd, 0x0e, 0x14,
  0xe7, 0xe5, 0x0e, 0xe8, 0xef, 0xd3, 0x19, 0xea, 0xf2, 0xd2, 0xf7, 0xfc,
  0xde, 0xdc, 0xe8, 0xf8, 0xf7, 0xc4, 0x01, 0xfc, 0xf2, 0xdd, 0xfd, 0xf6,
  0xf6, 0xfe, 0x07, 0xe5, 0xf8, 0x0f, 0xec, 0xab, 0xf0, 0x04, 0x23, 0xfd,
  0xf5, 0x10, 0x0e, 0xdd, 0xe4, 0xf3, 0xfa, 0xe7, 0xf5, 0xe5, 0xff, 0xf4,
  0xd5, 0xf7, 0x0e, 0x06, 0xe8, 0xf3, 0xf1, 0x0b, 0x03, 0xfc, 0xe2, 0xf7,
  0xff, 0xf0, 0x01, 0x02, 0xbf, 0xfa, 0x09, 0xc4, 0xf7, 0x1a, 0xed, 0xdc,
  0xde, 0x0e, 0x1b, 0x14, 0xd9, 0xf7, 0x1a, 0xd4, 0xdc, 0x09, 0x03, 0xec,
  0xfa, 0x0e, 0x10, 0xed, 0xeb, 0x0f, 0x0d, 0xf5, 0xe9, 0x03, 0xe7, 0x00,
  0xfe, 0x02, 0xed, 0xfc, 0xf4, 0x09, 0xe6, 0xfe, 0xd2, 0xfe, 0x1a, 0xcd,
  0xef, 0x01, 0x0d, 0x2f, 0xda, 0xf6, 0x26, 0xf2, 0xe4, 0x1a, 0x19, 0xd8,
  0xfe, 0x1e, 0x01, 0xe4, 0xfc, 0x1c, 0x16, 0x0f, 0x00, 0x22, 0xf9, 0x21,
  0xf0, 0x0e, 0xf8, 0xfe, 0xe7, 0x05, 0xe8, 0x04, 0xfd, 0x16, 0xed, 0x04,
  0xf1, 0x07, 0xf6, 0x0b, 0xfe, 0xf3, 0x1f, 0x34, 0xea, 0xf1, 0x3b, 0xc8,
  0xe2, 0x0e, 0x0b, 0xe7, 0x05, 0x16, 0x07, 0xf4, 0xe6, 0xed, 0x0c, 0x11,
  0x10, 0xf6, 0xf9, 0x17, 0xfc, 0xfe, 0xf2, 0x04, 0xdf, 0xeb, 0xf2, 0xf9,
  0x06, 0xff, 0xea, 0x08, 0x19, 0x0b, 0xc5, 0x1e, 0x0c, 0xe5, 0x2e, 0x18,
  0x08, 0xea, 0x22, 0xba, 0xee, 0x10, 0xf8, 0x1c, 0x0a, 0xf5, 0x0f, 0xed,
  0xea, 0xe8, 0x0c, 0xfe, 0xf2, 0xe5, 0xfd, 0xf2, 0xf9, 0xf4, 0x03, 0x04,
  0xf8, 0xe5, 0xf9, 0xf9, 0xf8, 0xee, 0x02, 0x03, 0x24, 0x15, 0xf9, 0x30,
  0x1f, 0xd8, 0x25, 0x01, 0x18, 0xf9, 0xff, 0xcc, 0xf5, 0xf3, 0xe6, 0x1f,
  0xfe, 0xdf, 0x0c, 0xf2, 0x01, 0xdf, 0xfc, 0xe7, 0xf4, 0xd1, 0xf7, 0xec,
  0x09, 0xeb, 0xf0, 0xff, 0x00, 0xec, 0xe8, 0xf9, 0xff, 0xf1, 0xf4, 0x02,
  0x20, 0xfc, 0xff, 0x13, 0x0c, 0xed, 0xea, 0xed, 0xef, 0xf9, 0xf6, 0xe3,
  0x03, 0xea, 0xf3, 0xf5, 0xe9, 0xec, 0x01, 0xe8, 0xf8, 0xf0, 0xfd, 0x02,
  0xf8, 0xff, 0xf4, 0xfc, 0xf6, 0xfb, 0xf6, 0x05, 0x03, 0xfb, 0xf5, 0xfd,
  0xfd, 0xf6, 0xfc, 0xfe, 0xf3, 0x03, 0xfd, 0xf9, 0xff, 0x10, 0xe5, 0xe6,
  0xed, 0xfe, 0x03, 0xec, 0x07, 0xf9, 0xfd, 0xe3, 0xf1, 0x12, 0xf6, 0xf9,
  0x0c, 0xfa, 0x07, 0xf8, 0x26, 0x0c, 0xfc, 0xf8, 0xfb, 0x2b, 0xf9, 0x00,
  0x13, 0x18, 0xfa, 0xf3, 0xff, 0x25, 0xfe, 0xfc, 0xd7, 0xe2, 0xef, 0xc9,
  0xfa, 0x0a, 0xe8, 0xe8, 0x03, 0xf9, 0x01, 0xfc, 0x12, 0xf9, 0x01, 0xe8,
  0x16, 0x35, 0xfc, 0x0b, 0x09, 0x19, 0x13, 0xef, 0x2c, 0x16, 0x06, 0x07,
  0x0b, 0x24, 0x09, 0xf7, 0x03, 0x1b, 0xfe, 0xfb, 0x05, 0x1c, 0x01, 0x09,
  0xe6, 0xfc, 0xeb, 0xcf, 0x0b, 0x19, 0xd0, 0xfd, 0x0f, 0x11, 0xea, 0xf8,
  0x02, 0xfd, 0xef, 0xee, 0x0f, 0x15, 0x02, 0x0f, 0xfd, 0x09, 0x04, 0x03,
  0x0b, 0x08, 0x08, 0x1b, 0x08, 0x0e, 0xfa, 0x04, 0xff, 0x03, 0xfb, 0x16,
  0x00, 0x10, 0x02, 0x17, 0xe8, 0x04, 0x12, 0xf6, 0xfd, 0x03, 0xec, 0xf9,
  0x07, 0x02, 0xf4, 0xf7, 0xf9, 0xe6, 0xfa, 0xf1, 0x03, 0xf7, 0xf1, 0x04,
  0xf3, 0xf7, 0x01, 0x0f, 0xf5, 0xea, 0x07, 0x07, 0x02, 0xf0, 0x14, 0x0a,
  0x04, 0x06, 0x03, 0x05, 0x03, 0x01, 0xfe, 0xfe, 0x26, 0x18, 0xf2, 0x15,
  0x25, 0x0e, 0x07, 0x2d, 0x30, 0x38, 0x12, 0x40, 0x1e, 0x30, 0x13, 0x49,
  0x14, 0x04, 0x10, 0x25, 0x23, 0x13, 0x00, 0xff, 0x16, 0x09, 0x10, 0x10,
  0x11, 0x37, 0x1a, 0x13, 0x2b, 0x21, 0xf4, 0x11, 0x14, 0x06, 0xfa, 0x06,
  0xfa, 0x15, 0x09, 0x31, 0xe7, 0xd3, 0x17, 0x24, 0xfa, 0x1a, 0xff, 0x0c,
  0x16, 0x05, 0xf9, 0xfd, 0xea, 0xf5, 0x1a, 0x0d, 0x03, 0xec, 0x14, 0xf7,
  0x07, 0xf7, 0xf9, 0x04, 0xfb, 0xfc, 0x05, 0x05, 0xf7, 0xf1, 0x06, 0x0e,
  0x03, 0xd3, 0xfe, 0xef, 0x05, 0x28, 0xf4, 0x16, 0xf4, 0xd2, 0xff, 0x24,
  0x08, 0x15, 0x0f, 0x14, 0xf4, 0xf2, 0x10, 0x0b, 0xfd, 0x00, 0x06, 0x0d,
  0x08, 0xf6, 0xfb, 0xed, 0xff, 0xde, 0xfc, 0xfb, 0xff, 0x07, 0x04, 0x0b,
  0xf8, 0xed, 0x0a, 0xf9, 0x00, 0xe8, 0x02, 0xfd, 0xf8, 0x1a, 0xfc, 0x16,
  0xed, 0xcb, 0x05, 0xfd, 0xed, 0x02, 0xfb, 0x29, 0xf8, 0xed, 0x1e, 0x20,
  0xfb, 0xff, 0xfa, 0x23, 0xf6, 0x02, 0xfb, 0xf2, 0x0d, 0xf8, 0x14, 0xfd,
  0x01, 0x0e, 0x04, 0x0e, 0xf5, 0xfb, 0x06, 0x08, 0x02, 0xfd, 0xfd, 0x07,
  0xfa, 0x05, 0xfa, 0x03, 0xee, 0xde, 0xe2, 0x18, 0x10, 0xf4, 0x00, 0x45,
  0xfc, 0xed, 0x0b, 0x26, 0x00, 0xda, 0x0f, 0xff, 0x17, 0x04, 0x0c, 0x0e,
  0x11, 0xff, 0x15, 0x0b, 0x04, 0x10, 0x16, 0x18, 0x02, 0xfe, 0x06, 0x11,
  0x00, 0xf3, 0x0d, 0x00, 0xf2, 0x16, 0xe2, 0xf0, 0xf0, 0xd1, 0xd7, 0x24,
  0xf9, 0x09, 0xff, 0x31, 0xfd, 0x0f, 0xfd, 0x10, 0x06, 0xf4, 0x01, 0xf2,
  0x0f, 0xef, 0xeb, 0x07, 0x02, 0xe8, 0x0d, 0x06, 0xeb, 0xeb, 0x07, 0x1e,
  0xfc, 0xdb, 0x11, 0x03, 0xfe, 0xcf, 0x0f, 0xf3, 0x07, 0x18, 0xee, 0xed,
  0xfe, 0xd5, 0xe3, 0x31, 0xf9, 0x17, 0xfa, 0x0b, 0x02, 0x20, 0xde, 0x03,
  0x11, 0xfb, 0xf7, 0x0b, 0x0b, 0xf3, 0xee, 0xfa, 0xfc, 0xf4, 0x0d, 0x00,
  0xf2, 0x12, 0xff, 0x03, 0xef, 0xf0, 0xf7, 0x01, 0x01, 0xe4, 0x05, 0xff,
  0xf5, 0x0e, 0x02, 0xe1, 0xfb, 0xdc, 0xef, 0x30, 0xf5, 0x41, 0xff, 0xf0,
  0x01, 0x19, 0x00, 0x15, 0xfe, 0xf9, 0x00, 0xf7, 0xf5, 0xf0, 0x06, 0xf9,
  0xff, 0xd4, 0x01, 0xfa, 0xfe, 0x1e, 0x0c, 0x05, 0xfe, 0x09, 0xf8, 0xea,
  0x0a, 0xfd, 0xf8, 0x05, 0xfe, 0x2a, 0xf5, 0xe8, 0xff, 0xe6, 0x03, 0x26,
  0x02, 0x37, 0xe5, 0x0e, 0xe5, 0x1f, 0xf6, 0xff, 0xfd, 0x02, 0x15, 0x09,
  0x01, 0xea, 0x10, 0xf3, 0x13, 0xfb, 0x15, 0xfb, 0x0f, 0x22, 0x1c, 0x07,
  0x07, 0x09, 0x0e, 0xf1, 0x0c, 0x12, 0x07, 0xff, 0xf2, 0x16, 0x09, 0xf1,
  0x01, 0x03, 0x08, 0x25, 0x13, 0x2b, 0xec, 0xf0, 0xf0, 0xf6, 0xf8, 0xef,
  0xe9, 0xe8, 0xff, 0xf9, 0x0e, 0xe5, 0x0f, 0xe2, 0x0d, 0xf7, 0x01, 0x04,
  0x09, 0x15, 0x16, 0x0f, 0x11, 0x04, 0x0d, 0x0a, 0x01, 0x0d, 0x08, 0x07,
  0xe7, 0xeb, 0xfb, 0xff, 0xf9, 0xe0, 0x03, 0x26, 0x06, 0x19, 0xdc, 0xf0,
  0xed, 0x06, 0x07, 0xf5, 0xef, 0xf8, 0xea, 0xf8, 0x1d, 0xec, 0xf6, 0xf2,
  0x10, 0xfe, 0x02, 0x04, 0x08, 0x00, 0x13, 0x03, 0x05, 0xfa, 0x03, 0x15,
  0xf8, 0x01, 0x11, 0x0a, 0xe3, 0x13, 0xe3, 0x01, 0xef, 0xf1, 0xe8, 0x1d,
  0xf9, 0x12, 0xee, 0xf3, 0xe1, 0x01, 0xeb, 0xee, 0xe2, 0xf0, 0xe3, 0xf3,
  0x2c, 0xd6, 0x0a, 0xf0, 0xff, 0xdd, 0xe9, 0x05, 0xfa, 0x25, 0x13, 0x11,
  0x00, 0x07, 0x05, 0x19, 0xfc, 0x14, 0x09, 0x12, 0xdb, 0x07, 0xfe, 0xe8,
  0xf0, 0xd2, 0xe2, 0x11, 0xef, 0x09, 0xd8, 0xfa, 0xe9, 0x08, 0xed, 0xf5,
  0xe3, 0xe8, 0xfd, 0xf3, 0x27, 0xe9, 0xfd, 0xf2, 0x05, 0xfa, 0x1b, 0x09,
  0xfc, 0x0f, 0x1a, 0x15, 0xf9, 0x00, 0x07, 0x10, 0xf4, 0x11, 0x0e, 0x13,
  0xf9, 0x0e, 0x0a, 0x0a, 0xf3, 0xdd, 0xf6, 0x27, 0xd6, 0x25, 0xec, 0x23,
  0xf6, 0x19, 0x02, 0xff, 0xf3, 0xf9, 0xe6, 0x02, 0x31, 0xee, 0x09, 0x10,
  0x0f, 0x13, 0x0e, 0x20, 0xf9, 0x06, 0x0c, 0x16, 0xf8, 0x00, 0x11, 0x08,
  0x0b, 0x02, 0x02, 0x01, 0xef, 0xf1, 0xff, 0x27, 0xf7, 0xe4, 0x03, 0x17,
  0xcf, 0x31, 0xdd, 0x08, 0xf0, 0x00, 0xfc, 0x06, 0xec, 0x03, 0x00, 0xdc,
  0x31, 0xe7, 0xee, 0x05, 0x14, 0x07, 0x1d, 0x0f, 0x00, 0x0d, 0x04, 0xf8,
  0x06, 0xec, 0x00, 0x00, 0x0a, 0xf0, 0xf9, 0x11, 0xed, 0xee, 0xf7, 0xfa,
  0x0a, 0xe4, 0x0e, 0xfb, 0xf5, 0x30, 0xfd, 0x10, 0x04, 0x2d, 0xef, 0xf7,
  0xfa, 0x07, 0xf6, 0x04, 0x0a, 0x12, 0xf5, 0xfe, 0x12, 0xfa, 0x16, 0x13,
  0xf8, 0x05, 0x0c, 0x09, 0x08, 0xf6, 0xf2, 0x0e, 0x05, 0xec, 0x09, 0x15,
  0xf4, 0xf5, 0xe5, 0x01, 0x14, 0xcf, 0x11, 0xeb, 0xf9, 0x34, 0xf9, 0x19,
  0x08, 0x19, 0xe0, 0xf6, 0xf1, 0xfc, 0xe4, 0xdf, 0x04, 0xfe, 0xfa, 0xec,
  0x1a, 0x14, 0x12, 0x10, 0xfb, 0x14, 0x16, 0x0b, 0xf8, 0xff, 0x05, 0xff,
  0x05, 0xfb, 0x0a, 0x03, 0xed, 0x1c, 0xef, 0x06, 0x23, 0xe6, 0x01, 0xe8,
  0x25, 0x20, 0x18, 0x07, 0x03, 0x30, 0xf9, 0x08, 0xe9, 0x2a, 0xd2, 0x0d,
  0x01, 0xf7, 0xff, 0x0d, 0x11, 0x03, 0x15, 0x12, 0x0d, 0x20, 0x0a, 0x07,
  0xfc, 0xec, 0xf2, 0xff, 0x08, 0x09, 0xfc, 0xf4, 0x03, 0x2f, 0x11, 0x09,
  0x1c, 0xf3, 0x00, 0xf1, 0x10, 0x2d, 0xee, 0x1d, 0xff, 0x2d, 0x06, 0x06,
  0xea, 0x27, 0x01, 0x20, 0x03, 0x19, 0x06, 0xfa, 0x01, 0x2e, 0xfc, 0x01,
  0x03, 0x0f, 0xef, 0xfd, 0xfb, 0xfa, 0xf8, 0x0d, 0x0c, 0xfb, 0xfa, 0x05,
  0xf4, 0x31, 0xf8, 0x0f, 0x0b, 0xf2, 0xfd, 0x15, 0x24, 0x33, 0x0f, 0x1c,
  0x07, 0x2a, 0xfe, 0x01, 0xf5, 0x19, 0xf5, 0xfb, 0x14, 0x0d, 0x0d, 0x03,
  0xf4, 0xff, 0xfe, 0xfd, 0xfc, 0x21, 0xf9, 0x07, 0x00, 0xff, 0xf9, 0xfa,
  0x0a, 0x01, 0x15, 0x00, 0x0a, 0x1a, 0x09, 0xfc, 0x12, 0xf1, 0xed, 0xfb,
  0x30, 0x3a, 0xff, 0xfc, 0x29, 0x3d, 0x02, 0x15, 0xfb, 0x22, 0x04, 0x12,
  0x09, 0x01, 0x01, 0x12, 0x04, 0x0c, 0x01, 0x01, 0x05, 0x16, 0x19, 0xfd,
  0x07, 0x08, 0xf2, 0xf7, 0xfa, 0xfc, 0x04, 0xf9, 0x0f, 0x42, 0x07, 0x09,
  0x1f, 0xf5, 0xfe, 0x0a, 0x21, 0x2e, 0x05, 0x0a, 0x01, 0x36, 0xf7, 0x1b,
  0xf0, 0x07, 0xee, 0x0c, 0x21, 0xef, 0x00, 0x05, 0x0c, 0x12, 0x03, 0xf9,
  0x0d, 0x20, 0x25, 0x04, 0xfe, 0x09, 0x08, 0x03, 0x00, 0x0b, 0x0c, 0x05,
  0x18, 0x39, 0x00, 0x0c, 0x10, 0xfc, 0xf3, 0x17, 0x0b, 0x1d, 0x06, 0x07,
  0xfc, 0x28, 0x12, 0xfb, 0xe7, 0x0f, 0xf8, 0x09, 0x2c, 0x10, 0xfc, 0xf2,
  0x13, 0x1e, 0xfa, 0x0a, 0x19, 0x24, 0x11, 0x14, 0x09, 0x16, 0x24, 0x0f,
  0x03, 0x18, 0x05, 0x08, 0x32, 0x25, 0xfb, 0x06, 0x08, 0xee, 0xf3, 0x1e,
  0x0c, 0x46, 0x0f, 0x1a, 0x01, 0x36, 0x09, 0x01, 0xf1, 0x0b, 0x26, 0x12,
  0x2d, 0x1a, 0x09, 0xf3, 0x18, 0x1b, 0x15, 0x20, 0x19, 0x1f, 0x29, 0x0d,
  0x07, 0x2f, 0x1e, 0x1a, 0xfd, 0x2e, 0x10, 0x0c, 0x11, 0x0c, 0x13, 0x0a,
  0x02, 0x07, 0x05, 0x04, 0x01, 0x0b, 0x00, 0x0b, 0x16, 0xf3, 0x08, 0x01,
  0xfd, 0x0c, 0x05, 0x01, 0xfe, 0xf0, 0x00, 0xf9, 0x04, 0x13, 0xff, 0xff,
  0xfe, 0xfe, 0xef, 0x00, 0xf9, 0xf1, 0xfd, 0xff, 0x00, 0xff, 0x01, 0x00,
  0xf0, 0xf3, 0x11, 0x1c, 0xfd, 0xe9, 0x11, 0x04, 0xfa, 0x1a, 0x05, 0x04,
  0x13, 0x0e, 0x06, 0x03, 0x00, 0x0d, 0x08, 0xfb, 0x05, 0x0b, 0xfc, 0x01,
  0x0e, 0x04, 0x04, 0x01, 0xfa, 0xf5, 0xf6, 0xfe, 0xfe, 0xf7, 0xff, 0x00,
  0x03, 0xfb, 0x01, 0x00, 0xe7, 0xfe, 0xff, 0xff, 0xfc, 0xe1, 0x00, 0x0b,
  0xf0, 0xf9, 0x02, 0x03, 0x08, 0x17, 0x13, 0x12, 0xf1, 0xfb, 0x0e, 0x00,
  0xef, 0x00, 0x0f, 0x0c, 0xf8, 0x03, 0xfe, 0x10, 0xfe, 0x0c, 0x0e, 0x08,
  0x01, 0x0c, 0x00, 0x0a, 0xfd, 0x06, 0x00, 0x0d, 0xe5, 0xf4, 0xeb, 0xe9,
  0x05, 0xd1, 0xfb, 0xee, 0xf7, 0xf8, 0x01, 0xf2, 0x08, 0xfa, 0x0b, 0x0d,
  0xed, 0xfc, 0x0b, 0xfc, 0xfe, 0x05, 0x0f, 0x14, 0x02, 0x12, 0x0b, 0x0d,
  0x01, 0x0b, 0x02, 0x0d, 0x01, 0x06, 0x04, 0x0d, 0x01, 0x02, 0x0a, 0x0d,
  0xe6, 0xfa, 0xee, 0xf0, 0x12, 0xd8, 0xef, 0xdc, 0xf5, 0x03, 0x06, 0x04,
  0xfa, 0xe3, 0xff, 0x00, 0xf0, 0xf2, 0x01, 0xfc, 0xfd, 0x01, 0x01, 0x0d,
  0x03, 0x01, 0x0b, 0x0d, 0x01, 0x02, 0xfd, 0x00, 0x06, 0x08, 0x00, 0x0d,
  0x00, 0x0b, 0x00, 0x0b, 0xe9, 0xf8, 0xde, 0xf3, 0x01, 0xdf, 0xf5, 0xe2,
  0xec, 0xf7, 0xf6, 0xfe, 0x08, 0xff, 0xf8, 0xf7, 0xf7, 0x04, 0xff, 0xf9,
  0x10, 0x02, 0x07, 0x15, 0x07, 0x0e, 0x0b, 0x06, 0x0d, 0x15, 0xf7, 0x01,
  0x0b, 0xfb, 0xfd, 0x00, 0x02, 0x02, 0x00, 0x09, 0xea, 0x01, 0xf5, 0xf1,
  0xfb, 0xdb, 0xf3, 0xeb, 0xef, 0xf3, 0x0a, 0xf6, 0x1b, 0x00, 0xf7, 0xfd,
  0xff, 0x06, 0xff, 0x00, 0xfc, 0x01, 0x0f, 0x07, 0x0c, 0x16, 0x04, 0x07,
  0x18, 0x16, 0x05, 0x00, 0x07, 0x0d, 0x01, 0x00, 0xfe, 0x01, 0x01, 0x00,
  0xdf, 0x01, 0xdb, 0xf9, 0x0d, 0xdb, 0xf9, 0xe2, 0x06, 0xf0, 0x06, 0xec,
  0x12, 0xfc, 0x00, 0x04, 0xdc, 0xec, 0xfe, 0x00, 0xf6, 0xe3, 0xfe, 0x00,
  0x0e, 0xf4, 0x01, 0xff, 0x1d, 0x07, 0x01, 0x00, 0x03, 0x08, 0xfa, 0x00,
  0xfe, 0x0a, 0xf6, 0x00, 0xe6, 0x08, 0xf0, 0xef, 0x0e, 0xfc, 0xd5, 0xd5,
  0xfb, 0x02, 0x00, 0xee, 0x00, 0xf8, 0xf6, 0xee, 0xe9, 0x08, 0xf4, 0xf6,
  0xed, 0xf2, 0xfe, 0xfd, 0x0c, 0xfd, 0xfd, 0x02, 0x10, 0xfc, 0xf1, 0xff,
  0x0b, 0x0d, 0xff, 0xff, 0x0c, 0x0c, 0xfd, 0x08, 0xe2, 0xfb, 0xdf, 0xd7,
  0x12, 0x03, 0xf2, 0x00, 0x0e, 0xf0, 0x08, 0xe8, 0xfd, 0xeb, 0xf5, 0xeb,
  0xef, 0xf8, 0xed, 0xfd, 0xe1, 0xe7, 0xf6, 0xff, 0x0e, 0x00, 0x03, 0xff,
  0xfd, 0x05, 0xfd, 0xff, 0x02, 0x03, 0xfc, 0xfe, 0x09, 0x0b, 0xfb, 0x06,
  0x11, 0xf8, 0xe1, 0xcd, 0x15, 0x21, 0xf5, 0x0d, 0x0f, 0xe3, 0x01, 0xdc,
  0xfc, 0xf7, 0xfd, 0xea, 0xfe, 0xff, 0xf8, 0xfc, 0xef, 0xdf, 0xfa, 0xff,
  0x05, 0xf2, 0x04, 0xfa, 0xfe, 0xf9, 0x01, 0xfe, 0x0b, 0xf7, 0x01, 0x01,
  0x02, 0xfb, 0x05, 0xfe, 0x0b, 0x0a, 0xec, 0xb6, 0x19, 0x1a, 0xe3, 0x00,
  0x0f, 0xe2, 0xec, 0xe0, 0x05, 0xe8, 0x00, 0xfd, 0xef, 0x05, 0xfb, 0x03,
  0xea, 0xef, 0x09, 0xf3, 0x07, 0x10, 0x05, 0xed, 0x0f, 0x06, 0x01, 0xfe,
  0x0f, 0x05, 0x06, 0xfa, 0x0a, 0x03, 0x01, 0x00, 0x1d, 0xe5, 0xd0, 0xde,
  0x19, 0x2e, 0xe3, 0x14, 0x04, 0xcd, 0xdd, 0xe8, 0x00, 0xe5, 0xf3, 0xec,
  0xf1, 0xfd, 0xef, 0x07, 0xf8, 0xec, 0x02, 0xf3, 0x0a, 0x0e, 0x03, 0xf9,
  0x0f, 0x1f, 0x05, 0xfc, 0x0f, 0x1b, 0xf6, 0xff, 0x13, 0x18, 0xfd, 0x06,
  0x33, 0xff, 0xdd, 0xe6, 0x17, 0x21, 0xc5, 0x0c, 0xfe, 0xcb, 0xc7, 0xe2,
  0xf6, 0xe5, 0xe7, 0xd6, 0x00, 0xe8, 0xed, 0x06, 0x00, 0xeb, 0x02, 0xf5,
  0x16, 0xf6, 0xfc, 0xf6, 0x1c, 0x00, 0x11, 0xfd, 0x05, 0x01, 0x16, 0x02,
  0x08, 0x1d, 0x06, 0xfb, 0x32, 0xfe, 0xde, 0xfb, 0x0f, 0x15, 0xfb, 0x03,
  0x05, 0xc8, 0xdb, 0xe3, 0xf1, 0x03, 0xe9, 0xf9, 0x1a, 0xe1, 0xea, 0xe6,
  0xf8, 0xfb, 0xff, 0x03, 0x07, 0xfe, 0xf6, 0xf7, 0x13, 0x01, 0x07, 0xfd,
  0x09, 0x01, 0x0b, 0x01, 0x03, 0x0f, 0x23, 0x02, 0x3c, 0xfd, 0xfd, 0xfd,
  0x11, 0x08, 0x28, 0x0b, 0x0a, 0xe5, 0xda, 0xf8, 0x18, 0x01, 0xe8, 0xf8,
  0x1c, 0xd9, 0xdc, 0xe8, 0x07, 0xe3, 0xf2, 0x00, 0x13, 0xf6, 0x05, 0xf9,
  0xfe, 0xff, 0x00, 0x06, 0x0a, 0xf1, 0x12, 0x04, 0xff, 0xf1, 0x0b, 0xfc,
  0x40, 0x18, 0x08, 0xf1, 0x08, 0x17, 0x0c, 0x07, 0xf2, 0xeb, 0xd4, 0x01,
  0x26, 0x02, 0xec, 0xfa, 0x23, 0xf5, 0xda, 0xf7, 0xf2, 0x06, 0xfd, 0xfc,
  0xfd, 0x0f, 0xf9, 0xf7, 0x03, 0x11, 0xfc, 0xfb, 0x0f, 0x0c, 0x0b, 0xf5,
  0x04, 0x07, 0xfe, 0xfb, 0x36, 0xfd, 0x14, 0xf8, 0xe7, 0x12, 0x13, 0x1a,
  0xe7, 0xe9, 0xbf, 0x1f, 0x34, 0xe1, 0xf8, 0x09, 0x14, 0xee, 0xde, 0x05,
  0xf0, 0xfc, 0xfa, 0x15, 0xf9, 0x0c, 0xff, 0x10, 0x07, 0x0d, 0xfe, 0xfa,
  0x0c, 0x09, 0x01, 0xfa, 0x01, 0xf6, 0xfb, 0x02, 0x23, 0xf6, 0x14, 0x1a,
  0xf9, 0x14, 0x05, 0x0a, 0xf4, 0xd2, 0xcb, 0x23, 0x30, 0xde, 0x0a, 0x01,
  0x25, 0xef, 0xe4, 0x05, 0x06, 0xe4, 0xfa, 0x0f, 0x00, 0x10, 0x16, 0x19,
  0x07, 0x01, 0x0d, 0x01, 0x0b, 0x08, 0xfe, 0xff, 0x01, 0x01, 0x00, 0x04,
  0x15, 0xe9, 0x12, 0xf9, 0x02, 0x0f, 0x0b, 0x03, 0xfd, 0x11, 0xeb, 0x3d,
  0x1d, 0xf8, 0x05, 0x17, 0x2f, 0xf7, 0xf6, 0x0e, 0xfd, 0xff, 0x0a, 0x00,
  0xf9, 0x05, 0x00, 0x01, 0x02, 0x05, 0x03, 0xfe, 0x08, 0xfd, 0x08, 0xf4,
  0x0b, 0x08, 0xf8, 0xf4, 0x06, 0xe1, 0x13, 0xfc, 0x15, 0xf7, 0x1d, 0x0c,
  0xff, 0x20, 0xdf, 0x2a, 0x14, 0x01, 0x00, 0x21, 0x19, 0x07, 0xef, 0x16,
  0xf7, 0xf9, 0x06, 0xfd, 0xf1, 0xf2, 0x11, 0xfb, 0xf1, 0xee, 0xfe, 0xf8,
  0x00, 0xea, 0xfb, 0xfe, 0x07, 0xff, 0xfc, 0xf9, 0xeb, 0xe6, 0x1f, 0x10,
  0x0c, 0xfc, 0x13, 0xf0, 0x05, 0x0c, 0xed, 0x2b, 0x09, 0x10, 0x10, 0x1b,
  0xff, 0xfd, 0x06, 0x08, 0x0a, 0xfd, 0xfe, 0x08, 0xf6, 0x06, 0x01, 0xfa,
  0xfc, 0x1c, 0x01, 0xf6, 0xf4, 0x0e, 0x03, 0xf7, 0xfb, 0xf0, 0x05, 0xfe,
  0xdb, 0xdf, 0xfa, 0x14, 0xf6, 0xf7, 0x02, 0xf9, 0x04, 0x01, 0xfc, 0x37,
  0x04, 0x0e, 0xef, 0x07, 0xf4, 0xf9, 0x04, 0x13, 0x0e, 0x01, 0xfa, 0x11,
  0x03, 0xf3, 0x03, 0xfa, 0x0a, 0x0f, 0x09, 0x08, 0xf6, 0xfa, 0x05, 0xff,
  0xfe, 0xf0, 0x03, 0x02, 0xe1, 0x01, 0xeb, 0xfe, 0xf8, 0x06, 0x05, 0xf8,
  0xfe, 0x18, 0xed, 0x1b, 0x17, 0x22, 0xf8, 0x0e, 0xee, 0x07, 0x02, 0x0b,
  0x03, 0xfa, 0xfb, 0x04, 0x10, 0x02, 0xf3, 0x10, 0x11, 0x10, 0x01, 0x06,
  0xfa, 0x04, 0xfe, 0x04, 0x02, 0x08, 0xfa, 0xf3, 0x09, 0x19, 0x0d, 0x09,
  0xf5, 0xfe, 0xf0, 0xf9, 0xf6, 0xd1, 0x01, 0xd5, 0xff, 0xe9, 0x00, 0xf4,
  0xf9, 0xed, 0xfd, 0xf7, 0xf7, 0xfb, 0x01, 0x05, 0xf8, 0xf6, 0xff, 0xff,
  0xfa, 0xf7, 0xff, 0xff, 0xef, 0xf1, 0xed, 0x00, 0x00, 0xfc, 0xff, 0xf1,
  0x35, 0x2b, 0x01, 0x18, 0x03, 0x11, 0x07, 0xee, 0xe6, 0x1b, 0x13, 0xd7,
  0xf7, 0xf6, 0xfc, 0xe7, 0xf2, 0xeb, 0xf1, 0xef, 0xfe, 0xf2, 0xe9, 0xff,
  0xf8, 0xe1, 0xfe, 0x07, 0xf5, 0xe5, 0x06, 0x00, 0xfa, 0xe5, 0xfb, 0xfb,
  0x04, 0xf8, 0x00, 0x00, 0x44, 0x29, 0x1e, 0xf8, 0x07, 0xea, 0xfc, 0xce,
  0xcd, 0x10, 0x40, 0xcc, 0xff, 0xec, 0x14, 0xda, 0x19, 0xe1, 0x03, 0xe4,
  0x01, 0xf1, 0xfb, 0xff, 0x01, 0xd5, 0xf0, 0xf4, 0x06, 0xfb, 0x00, 0xfc,
  0x0b, 0xf7, 0xfc, 0xfa, 0x03, 0xea, 0xfe, 0xfe, 0x0a, 0x20, 0x0f, 0xc5,
  0xff, 0xea, 0x0b, 0xfc, 0xc4, 0x10, 0x38, 0xe8, 0x0c, 0xfd, 0xfa, 0xf0,
  0x0e, 0xfb, 0xf0, 0xe0, 0xfe, 0xe2, 0xf0, 0xfc, 0xe7, 0xda, 0xf5, 0xf6,
  0x16, 0xf3, 0xf9, 0xfa, 0x18, 0x0c, 0xf5, 0xfd, 0xfe, 0x06, 0xf5, 0x08,
  0x0f, 0x1b, 0x34, 0xe1, 0x03, 0xf5, 0x14, 0x19, 0xcd, 0x0c, 0x16, 0xf6,
  0xf1, 0xff, 0x19, 0xf1, 0x03, 0xf2, 0xfb, 0xe1, 0x04, 0xf5, 0xfe, 0xf5,
  0xf3, 0xf2, 0x01, 0xed, 0x21, 0x06, 0xf7, 0xfc, 0x0a, 0x08, 0xf0, 0x04,
  0x08, 0x00, 0x05, 0x0a, 0xeb, 0x02, 0x20, 0xf3, 0xff, 0xe5, 0x1d, 0x32,
  0xdb, 0x0b, 0x07, 0xe7, 0xf7, 0x1a, 0x0e, 0xf7, 0x28, 0x10, 0xf6, 0x0b,
  0xf1, 0x02, 0x0f, 0xf2, 0xfb, 0xf8, 0x0d, 0xfc, 0x16, 0x09, 0x09, 0xff,
  0x02, 0x10, 0x0c, 0x0d, 0x00, 0x10, 0xfd, 0x01, 0xe3, 0xd1, 0x14, 0x07,
  0xf0, 0xf1, 0x18, 0x2c, 0xe7, 0xf4, 0xf9, 0xed, 0xe1, 0x23, 0x00, 0x03,
  0xf6, 0x08, 0x08, 0x0a, 0xe8, 0xf3, 0xfe, 0x09, 0xf7, 0x0c, 0x09, 0x02,
  0x1a, 0x03, 0x06, 0xfd, 0x11, 0x0b, 0x14, 0xfe, 0x00, 0x0d, 0xfb, 0x03,
  0xef, 0xd7, 0xe6, 0x0e, 0xfb, 0xca, 0x12, 0x1b, 0x01, 0xea, 0x0d, 0xec,
  0xf7, 0x34, 0x00, 0x15, 0xf5, 0x19, 0x01, 0x01, 0xfd, 0x11, 0xfc, 0xfb,
  0xfe, 0x0f, 0x02, 0xfc, 0x0c, 0xf0, 0x04, 0xf7, 0x0b, 0xf8, 0x0e, 0xfc,
  0xf5, 0x07, 0xf4, 0x05, 0xfd, 0xf4, 0x09, 0x10, 0xf3, 0xd4, 0xfb, 0x08,
  0x04, 0xec, 0x0f, 0xf1, 0xfb, 0x25, 0x0c, 0x17, 0x05, 0x02, 0x08, 0xf1,
  0xe0, 0x16, 0xf1, 0x09, 0xf3, 0x05, 0xfe, 0x01, 0x01, 0x01, 0xf5, 0xf0,
  0x02, 0xf5, 0x12, 0x09, 0xfe, 0xfb, 0x02, 0x06, 0xf8, 0xde, 0x00, 0x10,
  0xec, 0xcb, 0xfa, 0xfc, 0x07, 0xd8, 0x0d, 0xda, 0xf6, 0x1d, 0xf4, 0x08,
  0xfd, 0x26, 0xef, 0xfa, 0xf1, 0x1c, 0xf4, 0x08, 0xff, 0x15, 0xf4, 0xf3,
  0xfb, 0xff, 0xf0, 0xf9, 0xfa, 0xf8, 0xf5, 0xfb, 0xf5, 0xf5, 0x03, 0xfd,
  0xe6, 0xfe, 0xf9, 0xe1, 0xef, 0xf2, 0xd3, 0xcb, 0xff, 0xe7, 0xfe, 0xd6,
  0x00, 0x0c, 0xfd, 0xfc, 0xf5, 0x39, 0xef, 0x07, 0xde, 0x2e, 0xf5, 0xf5,
  0xee, 0x1c, 0xf8, 0xf5, 0xe5, 0x2d, 0xed, 0xff, 0xf7, 0x20, 0xff, 0xf9,
  0x05, 0x12, 0xfe, 0xfe, 0xca, 0xf8, 0xe2, 0xc5, 0xf0, 0x0f, 0xc8, 0xc9,
  0xff, 0x15, 0xde, 0xea, 0xfb, 0x0c, 0xf1, 0xf2, 0x02, 0x2a, 0x0e, 0x0b,
  0xf4, 0x3c, 0xfe, 0x02, 0xed, 0x14, 0x00, 0xf5, 0xef, 0x18, 0xe6, 0xf7,
  0xea, 0x12, 0xf4, 0xf6, 0x02, 0x10, 0xfa, 0xfa, 0xd9, 0xf3, 0xe1, 0xe0,
  0xf4, 0x08, 0xdf, 0xe6, 0xf4, 0x13, 0xde, 0x00, 0xfa, 0x0c, 0x01, 0xff,
  0xde, 0x23, 0x0c, 0x0c, 0xfe, 0x3b, 0xee, 0x09, 0xf1, 0x2c, 0xf5, 0xf8,
  0xee, 0x23, 0xdd, 0xfa, 0xe8, 0x20, 0xe9, 0xf6, 0xf7, 0x04, 0xf8, 0xf5,
  0xd8, 0xf8, 0xe9, 0x07, 0xf2, 0x03, 0xcb, 0xe8, 0xfa, 0xfd, 0xdd, 0xe0,
  0xf5, 0xf3, 0xf9, 0xfe, 0x02, 0xff, 0x05, 0xff, 0xf0, 0x17, 0xf3, 0x04,
  0xf1, 0x19, 0xfb, 0xf0, 0xf6, 0x20, 0xf7, 0xff, 0xff, 0x22, 0xe0, 0x02,
  0xfd, 0x15, 0x06, 0xfa, 0xd6, 0xf8, 0x00, 0x35, 0x00, 0xf5, 0xda, 0xf0,
  0xff, 0x0c, 0xec, 0xee, 0xff, 0x12, 0xf3, 0xf3, 0x02, 0x25, 0xe7, 0xf3,
  0xf3, 0x11, 0x0c, 0xea, 0xfa, 0x1d, 0x04, 0xf8, 0xf8, 0x1c, 0xfa, 0x04,
  0xf6, 0x01, 0xfb, 0xfb, 0xff, 0x06, 0xfe, 0xf9, 0xe5, 0xf0, 0xfa, 0x10,
  0xfd, 0xf7, 0xce, 0xe3, 0x07, 0x04, 0xfa, 0x02, 0x02, 0x0d, 0xf6, 0xf5,
  0xea, 0x09, 0xee, 0xf1, 0x0b, 0xf8, 0xe9, 0xf6, 0xfb, 0x11, 0xfb, 0xfa,
  0xf7, 0x0a, 0xf5, 0xfd, 0xf5, 0xf4, 0x00, 0xf3, 0xff, 0xfb, 0xfd, 0xf7,
  0xdc, 0xe8, 0xfb, 0xff, 0xf8, 0xf7, 0xd3, 0xe6, 0x0d, 0xe8, 0xe9, 0xee,
  0xf8, 0xf2, 0x02, 0xee, 0xf3, 0xf8, 0xfc, 0xff, 0x04, 0xf4, 0xf2, 0xe7,
  0x06, 0xfe, 0xf2, 0xf4, 0xfb, 0x04, 0xf4, 0xf2, 0xf2, 0x09, 0xe6, 0xf6,
  0x03, 0xfc, 0xf7, 0xf1, 0xd9, 0xff, 0xf4, 0xfa, 0xfa, 0xee, 0xd5, 0xe4,
  0x0e, 0x01, 0xed, 0xe4, 0xf7, 0xf9, 0x04, 0x01, 0xfa, 0xfd, 0xee, 0xf9,
  0xfb, 0xe6, 0xf4, 0xf1, 0xfa, 0xef, 0xf8, 0xf8, 0xfc, 0xd9, 0xf2, 0xf3,
  0x0a, 0xef, 0xfa, 0xf9, 0x02, 0xf8, 0xfa, 0xec, 0xe0, 0x0a, 0xed, 0x13,
  0x02, 0x05, 0xde, 0xee, 0xf7, 0xf6, 0xf9, 0xf4, 0xf4, 0xfd, 0xf8, 0xfa,
  0xf2, 0x02, 0xf7, 0xf1, 0x02, 0xfb, 0xfb, 0xed, 0xff, 0xf9, 0xf4, 0xea,
  0xfa, 0xef, 0xf5, 0xf6, 0x0a, 0xff, 0xf4, 0xf5, 0x00, 0x07, 0xfa, 0xf2,
  0x17, 0x0c, 0xfe, 0x0e, 0xfa, 0x04, 0xdc, 0xf6, 0xf8, 0xea, 0xe8, 0xf9,
  0xf0, 0xe9, 0xff, 0xf6, 0xf5, 0xe6, 0xf3, 0xf0, 0x19, 0xf9, 0xfb, 0xff,
  0xfe, 0xf5, 0xfb, 0x00, 0x05, 0xec, 0x02, 0xff, 0xfb, 0xf6, 0xf7, 0xff,
  0x00, 0xfe, 0xfa, 0xf8, 0x17, 0xfa, 0x0c, 0x28, 0x03, 0xfb, 0xf5, 0xe3,
  0xf7, 0xfd, 0x0d, 0xe8, 0xed, 0x03, 0x08, 0xf0, 0xf5, 0xf2, 0x02, 0x09,
  0x17, 0xfe, 0xf6, 0xfa, 0xf8, 0xf1, 0xfa, 0x08, 0x13, 0x05, 0xf9, 0xf3,
  0x04, 0xfa, 0x02, 0xff, 0x01, 0xff, 0x00, 0xff, 0x06, 0x07, 0x26, 0x29,
  0x10, 0x11, 0x0b, 0xee, 0xe4, 0x07, 0x09, 0xdf, 0xfb, 0xf6, 0x01, 0xfd,
  0x06, 0xfd, 0xf7, 0x03, 0x03, 0x06, 0xfa, 0xff, 0x09, 0xf6, 0x04, 0x01,
  0x09, 0xf4, 0xec, 0xfd, 0xff, 0x04, 0x00, 0x00, 0x08, 0xf3, 0xff, 0x00,
  0x00, 0xf9, 0x22, 0x17, 0x04, 0x2b, 0x4b, 0x10, 0xf0, 0xff, 0x1c, 0xef,
  0xfa, 0x1a, 0x0d, 0xff, 0x13, 0x05, 0x01, 0x06, 0x03, 0x0c, 0xf4, 0x07,
  0xff, 0x0c, 0x01, 0xf6, 0x12, 0xfe, 0xf5, 0xfc, 0xfc, 0x12, 0xf2, 0xff,
  0x02, 0xfa, 0x08, 0x01, 0x0d, 0x02, 0x29, 0x0a, 0x01, 0x08, 0x1f, 0x17,
  0xec, 0x00, 0x17, 0x18, 0xe8, 0x1d, 0xfa, 0x11, 0x12, 0x00, 0xfb, 0xfb,
  0x00, 0x0e, 0xf9, 0x13, 0x06, 0x02, 0x03, 0xf9, 0x05, 0xfd, 0xf4, 0x13,
  0xf9, 0xef, 0x00, 0x07, 0xf7, 0xfa, 0x03, 0xf9, 0xf5, 0x0a, 0xfb, 0xfc,
  0x02, 0x06, 0xfc, 0xe4, 0xfa, 0x00, 0xff, 0x13, 0x08, 0xfd, 0x00, 0xf8,
  0xf3, 0x04, 0xfd, 0xfa, 0xf3, 0xed, 0xff, 0xf5, 0xf1, 0xf3, 0xfe, 0xf5,
  0xf5, 0x01, 0xe8, 0xf5, 0xf0, 0xfc, 0xf2, 0xfb, 0xff, 0xfe, 0x01, 0xf7,
  0xfc, 0xf8, 0xfd, 0xf7, 0x03, 0x05, 0xf8, 0x03, 0x07, 0xf6, 0xfe, 0x16,
  0x0f, 0xf9, 0x00, 0xf8, 0xfb, 0xeb, 0xfa, 0xfd, 0xfb, 0xf8, 0x0b, 0xfb,
  0x02, 0x06, 0x03, 0xf4, 0xfe, 0x17, 0xf5, 0xf2, 0xef, 0xfc, 0xee, 0xfc,
  0xfa, 0xf8, 0xfe, 0x00, 0xf4, 0xf1, 0xfb, 0x04, 0xff, 0xfc, 0x03, 0xf9,
  0xef, 0xf7, 0xfc, 0x05, 0xfb, 0xf9, 0xf6, 0xf6, 0xf2, 0xf4, 0xfc, 0xfa,
  0x05, 0xf2, 0xfa, 0xfd, 0x0f, 0xff, 0xfd, 0xfc, 0x04, 0xfc, 0x01, 0xfb,
  0xf7, 0xf8, 0xfd, 0x00, 0xfd, 0xf6, 0xfc, 0xfe, 0xfd, 0xfa, 0x04, 0xf9,
  0x01, 0xf1, 0x04, 0xfc, 0x05, 0xff, 0x08, 0xf5, 0xf0, 0xf7, 0xf7, 0xf0,
  0xee, 0xea, 0xf5, 0xf9, 0x00, 0xfa, 0xf3, 0xf6, 0x08, 0xeb, 0x01, 0xfa,
  0x0a, 0xfe, 0xff, 0xfc, 0xf4, 0xf7, 0xff, 0xfb, 0x05, 0xf3, 0x01, 0xfa,
  0x04, 0xfc, 0xf7, 0xed, 0x06, 0xfd, 0x04, 0xf7, 0xf6, 0x02, 0x03, 0xfa,
  0xfb, 0x12, 0xfa, 0xf8, 0xf8, 0x08, 0xf9, 0xfb, 0xf2, 0xf6, 0xf9, 0xee,
  0xfd, 0xfd, 0xf6, 0x04, 0x0d, 0x0b, 0x02, 0xfd, 0x08, 0xfe, 0xfa, 0xf9,
  0x0b, 0x0a, 0xfb, 0xfe, 0xfd, 0x02, 0xf0, 0xe9, 0x07, 0x0f, 0xed, 0xff,
  0x00, 0xe4, 0x03, 0xfd, 0x03, 0xfe, 0xfb, 0xff, 0x00, 0xfc, 0xf6, 0xfc,
  0xfb, 0xfe, 0xfe, 0xf4, 0xff, 0x01, 0xfc, 0xfb, 0xf8, 0xff, 0xff, 0xf3,
  0x02, 0x01, 0xfb, 0x01, 0x08, 0x04, 0x02, 0xfd, 0x0d, 0x0f, 0xe5, 0xc7,
  0x05, 0x23, 0xdc, 0x17, 0x05, 0xce, 0xf5, 0xf1, 0x0d, 0x05, 0x0e, 0xef,
  0xee, 0xec, 0xeb, 0xf0, 0xf3, 0xe8, 0xfd, 0xec, 0x02, 0xf3, 0xf7, 0xfe,
  0x06, 0xec, 0xfa, 0xfa, 0x16, 0x00, 0xfd, 0xfb, 0xfa, 0xf0, 0xfd, 0xfc,
  0x19, 0x05, 0xeb, 0xdc, 0x11, 0x2a, 0xef, 0xfd, 0x09, 0xce, 0xe9, 0xf5,
  0x06, 0xc6, 0x07, 0xe8, 0x00, 0xfa, 0xee, 0xf3, 0xf9, 0xe2, 0xf6, 0xee,
  0x08, 0xf4, 0xf1, 0xf0, 0x1e, 0xf8, 0xef, 0xeb, 0x07, 0xf9, 0xeb, 0xf1,
  0x03, 0x02, 0x03, 0xe6, 0x02, 0xf2, 0xf9, 0xdf, 0x1a, 0x2f, 0xea, 0xfc,
  0x12, 0xdd, 0xea, 0xfb, 0x05, 0xe7, 0xea, 0x10, 0xf8, 0xe6, 0xfe, 0x10,
  0xfa, 0xe8, 0xfb, 0xf5, 0x12, 0x01, 0x01, 0xf4, 0x13, 0xfd, 0x02, 0xff,
  0x13, 0x08, 0xf8, 0x04, 0x01, 0x18, 0x02, 0xf6, 0x11, 0xd4, 0xf7, 0x08,
  0x0e, 0x0b, 0xe0, 0xfb, 0xe4, 0xcd, 0x02, 0xf9, 0xf1, 0xdd, 0xf9, 0xf8,
  0x00, 0xec, 0xe1, 0xea, 0xeb, 0xe5, 0xf6, 0xf8, 0xf9, 0xec, 0xfa, 0xf9,
  0xfc, 0xee, 0x03, 0xfd, 0x04, 0xfa, 0x0c, 0x03, 0x08, 0xf7, 0xfc, 0x00,
  0x15, 0xda, 0xd6, 0x16, 0x0f, 0x07, 0xdd, 0x0b, 0x00, 0xd9, 0xf9, 0xe7,
  0xed, 0xe6, 0xfa, 0xd5, 0xf5, 0xf8, 0xeb, 0xda, 0xeb, 0xf1, 0xff, 0xec,
  0xf1, 0xfd, 0xf5, 0xfc, 0xf8, 0xf3, 0x01, 0xfe, 0x01, 0xf8, 0x07, 0x00,
  0x05, 0xf5, 0x07, 0x01, 0x15, 0xef, 0xe6, 0x07, 0x18, 0x06, 0xcf, 0xfc,
  0xff, 0xff, 0x07, 0xe4, 0x01, 0xeb, 0xe1, 0xf0, 0xf0, 0xe5, 0xea, 0xef,
  0xea, 0xdc, 0xf9, 0xed, 0xe6, 0xee, 0xf9, 0xfa, 0xee, 0xdb, 0xfb, 0xfc,
  0xf2, 0xd6, 0xf7, 0xfb, 0x05, 0xea, 0xff, 0xff, 0x2e, 0xea, 0x0f, 0x02,
  0x17, 0x03, 0xeb, 0xe3, 0xfe, 0xfc, 0x2d, 0xe0, 0x09, 0xbd, 0xf8, 0xfa,
  0xfb, 0xd1, 0xf1, 0xf4, 0xfc, 0xd5, 0xf8, 0xfd, 0xfd, 0xf2, 0xe9, 0xff,
  0xf9, 0x00, 0xf9, 0xf1, 0xf8, 0xfb, 0xef, 0xfe, 0x03, 0xf1, 0xfd, 0xf6,
  0x30, 0xf7, 0x15, 0xe6, 0x14, 0xf0, 0x37, 0xc1, 0xf4, 0x10, 0x0b, 0xe7,
  0x03, 0xf4, 0x16, 0xec, 0xf3, 0xd3, 0xfe, 0xdf, 0xfb, 0xdc, 0xf9, 0xf4,
  0x03, 0xe7, 0xf4, 0xf9, 0x0a, 0xee, 0x07, 0xf7, 0x0d, 0x06, 0x0c, 0x00,
  0x05, 0xfd, 0xf6, 0xff, 0x25, 0x17, 0x1d, 0x00, 0x11, 0xef, 0x35, 0xdc,
  0xef, 0x2a, 0x2e, 0xd3, 0x15, 0xf4, 0xfd, 0xe4, 0x12, 0xf6, 0xe9, 0xe4,
  0xfa, 0xe4, 0x04, 0xfd, 0x00, 0xf3, 0xf9, 0xf8, 0x03, 0xe0, 0x0c, 0x00,
  0x02, 0xfc, 0x07, 0x05, 0x09, 0xf3, 0x02, 0xfe, 0x17, 0x05, 0x24, 0xfb,
  0x08, 0xee, 0x39, 0x05, 0xe4, 0x17, 0x2c, 0xe6, 0xf5, 0xfa, 0xfe, 0x00,
  0x08, 0xdf, 0xf4, 0xe6, 0x04, 0xdd, 0x07, 0xe8, 0x09, 0xf5, 0x02, 0xf2,
  0x03, 0xff, 0x09, 0x05, 0xfb, 0x04, 0x0e, 0x06, 0x06, 0x02, 0x0c, 0xfc,
  0x27, 0x0a, 0x1a, 0xfb, 0x04, 0xe3, 0x35, 0x1a, 0xec, 0x0a, 0x24, 0x0d,
  0xff, 0x03, 0xfb, 0x14, 0xfe, 0xf9, 0xf5, 0x02, 0x0f, 0xec, 0x0a, 0xf2,
  0xfa, 0xe7, 0x06, 0xf7, 0xfb, 0x03, 0xf9, 0xff, 0x0a, 0xf8, 0x08, 0xff,
  0x06, 0x04, 0x12, 0xf4, 0x01, 0xfa, 0x36, 0xff, 0xe7, 0x0a, 0x42, 0x29,
  0xdf, 0xfa, 0x20, 0xfd, 0x10, 0x14, 0x1a, 0xfa, 0x19, 0x02, 0xf7, 0xe7,
  0x1a, 0xf5, 0x0e, 0x04, 0xfc, 0x05, 0xfa, 0x03, 0xfb, 0x16, 0x06, 0xf2,
  0x12, 0x2d, 0x13, 0xf7, 0x05, 0x0b, 0xfd, 0xfa, 0xdc, 0xe7, 0x1d, 0x01,
  0xea, 0xfd, 0x40, 0x13, 0xe0, 0xed, 0x03, 0x02, 0x17, 0x09, 0x0f, 0x03,
  0x12, 0x18, 0xff, 0x06, 0xff, 0x19, 0x0c, 0x11, 0x00, 0x0e, 0x15, 0x00,
  0x08, 0x0e, 0x01, 0x06, 0x17, 0x1a, 0xfc, 0x02, 0xfb, 0x06, 0x07, 0x0e,
  0xed, 0xe3, 0xf2, 0x03, 0x06, 0xe6, 0x28, 0x0d, 0xe6, 0x02, 0x14, 0x00,
  0x0d, 0x21, 0x23, 0x0c, 0x0b, 0x29, 0x12, 0x0d, 0xef, 0x07, 0x0a, 0x01,
  0xf9, 0x24, 0x04, 0x0e, 0xff, 0x02, 0x05, 0xff, 0x08, 0x0d, 0xfe, 0x0a,
  0xfc, 0x06, 0xf5, 0x02, 0xef, 0xef, 0xfe, 0xd4, 0xfd, 0xe8, 0xfb, 0x09,
  0xec, 0x01, 0x04, 0x0f, 0xff, 0x02, 0x13, 0x06, 0xfd, 0x1f, 0x21, 0x14,
  0xf5, 0x12, 0x0d, 0x09, 0xec, 0x0b, 0x0d, 0x1b, 0xfc, 0xed, 0x0c, 0xfc,
  0xfb, 0xfd, 0x01, 0x15, 0x0e, 0x10, 0xf8, 0xfd, 0xd3, 0xec, 0xd7, 0xd4,
  0xf5, 0xe3, 0xe7, 0x05, 0x0b, 0xf9, 0x05, 0x15, 0x12, 0x0f, 0x14, 0x1c,
  0x02, 0x1b, 0x16, 0xfd, 0xe3, 0x3e, 0x09, 0x0c, 0xf6, 0x1b, 0x09, 0x12,
  0xfd, 0x24, 0xff, 0xf9, 0xfb, 0x28, 0xf6, 0x00, 0xfe, 0x06, 0x06, 0xfd,
  0xcb, 0xf2, 0xe1, 0xc7, 0xe3, 0xee, 0xe2, 0xed, 0xfa, 0x0b, 0x27, 0xf4,
  0x00, 0x1c, 0xf3, 0x02, 0xf0, 0x1c, 0x0a, 0x13, 0xdf, 0x39, 0xec, 0x00,
  0xfc, 0x31, 0x0c, 0xfe, 0xfe, 0x2a, 0xf9, 0xf8, 0xfd, 0x16, 0xf9, 0xfc,
  0x06, 0xfb, 0xfc, 0xf3, 0xbe, 0xf1, 0xeb, 0xd2, 0xf4, 0xe8, 0xcf, 0xe5,
  0x03, 0x1f, 0x03, 0xe7, 0xfd, 0x0a, 0x02, 0xe3, 0xe5, 0x1e, 0xfd, 0xfc,
  0xd5, 0x2e, 0xf3, 0xfe, 0xf9, 0x30, 0xfc, 0xf7, 0x01, 0x40, 0xe5, 0xfe,
  0xfb, 0x19, 0xfb, 0xf4, 0x08, 0x01, 0xf6, 0xf5, 0x10, 0x02, 0xe7, 0xd2,
  0x08, 0x31, 0xe6, 0x21, 0x0b, 0xe9, 0xed, 0xe1, 0x01, 0xe4, 0xff, 0xf9,
  0x09, 0xfc, 0x09, 0x02, 0x0a, 0xf2, 0xfc, 0xfb, 0x0a, 0xf9, 0x04, 0x02,
  0x1a, 0x0a, 0xff, 0xfc, 0x1b, 0x16, 0xf4, 0x0c, 0x07, 0x0e, 0x01, 0x07,
  0x17, 0xf7, 0xe3, 0xe6, 0x23, 0x37, 0xc7, 0x20, 0x1d, 0xd5, 0xe9, 0xec,
  0x1c, 0xeb, 0xf5, 0xed, 0x09, 0x0e, 0xf3, 0x02, 0x14, 0xed, 0x02, 0x04,
  0x09, 0x06, 0x08, 0xf7, 0x09, 0x11, 0xf3, 0x11, 0x08, 0x0c, 0x05, 0x16,
  0x05, 0x00, 0xfb, 0xfe, 0x23, 0x1c, 0xe0, 0xf3, 0x11, 0x34, 0xc0, 0x25,
  0x1d, 0xd0, 0xda, 0xf9, 0x1e, 0xe6, 0xec, 0x01, 0xfd, 0xf4, 0xeb, 0x11,
  0xfd, 0xde, 0xf8, 0xfb, 0x04, 0xfc, 0xfd, 0xfe, 0xfc, 0x03, 0x08, 0x02,
  0xfc, 0xf4, 0x00, 0x04, 0xfc, 0xfb, 0x08, 0x02, 0x3d, 0x09, 0xeb, 0xfb,
  0xfd, 0x34, 0xdc, 0x1f, 0x10, 0xbe, 0xd8, 0x02, 0x25, 0xea, 0xfb, 0x19,
  0xf8, 0xe9, 0x07, 0x19, 0xf3, 0xdd, 0xf4, 0xf9, 0xf1, 0xd9, 0xff, 0x0f,
  0xf5, 0xed, 0xfc, 0x09, 0xf6, 0xdf, 0xff, 0x06, 0xfa, 0xfa, 0x04, 0xfb,
  0x32, 0xfb, 0xf0, 0x12, 0xfd, 0x26, 0x00, 0x08, 0x0e, 0xc8, 0xd2, 0x0b,
  0x1e, 0xde, 0x08, 0xfe, 0x0b, 0xfd, 0xff, 0x02, 0x01, 0xe1, 0xf0, 0x00,
  0xfb, 0xef, 0x01, 0x05, 0xfe, 0x06, 0x05, 0xff, 0xeb, 0xf0, 0xfd, 0x00,
  0xf9, 0xe3, 0xfb, 0xf8, 0x30, 0xcb, 0x0c, 0x21, 0x01, 0xf7, 0xf7, 0xfe,
  0xf2, 0xe5, 0xf6, 0x06, 0x00, 0xda, 0x05, 0xff, 0xfc, 0xe5, 0x07, 0x02,
  0xf2, 0xed, 0xf4, 0x05, 0xf9, 0xf7, 0x04, 0xfc, 0x0b, 0x04, 0x01, 0xfa,
  0xf3, 0xf0, 0xf2, 0x01, 0xf4, 0xea, 0xfe, 0x00, 0x13, 0xc6, 0x0b, 0x31,
  0x08, 0xe6, 0xf8, 0xec, 0xe5, 0xec, 0xf8, 0xfa, 0x04, 0xc8, 0xfd, 0x04,
  0xfa, 0xea, 0x03, 0xfe, 0xea, 0xe0, 0x13, 0xf8, 0xf8, 0xde, 0xf2, 0xf5,
  0x04, 0x06, 0x03, 0x06, 0xef, 0xf7, 0xfb, 0x00, 0xfb, 0xf8, 0xfb, 0xf3,
  0x02, 0xd4, 0xfd, 0x37, 0x0c, 0xf0, 0x1f, 0xde, 0xe2, 0x05, 0x18, 0xf4,
  0x06, 0xf0, 0xf3, 0xf4, 0x09, 0xf6, 0x09, 0x05, 0xea, 0xf3, 0x08, 0xfc,
  0xfc, 0xfc, 0xed, 0xfb, 0x04, 0x0f, 0x05, 0xfd, 0x00, 0x01, 0xfa, 0x00,
  0xf6, 0xfd, 0xf5, 0xf2, 0x07, 0xf7, 0x24, 0x1e, 0x12, 0x00, 0x25, 0xc2,
  0xfe, 0x0c, 0x17, 0xea, 0x0f, 0xf6, 0xff, 0xfc, 0x01, 0xf7, 0xf6, 0x1a,
  0xf3, 0xe8, 0xfe, 0xfb, 0xff, 0xe9, 0x03, 0xff, 0x0c, 0xfe, 0x04, 0x05,
  0x04, 0xfa, 0xf8, 0x05, 0xf6, 0xfc, 0x04, 0x00, 0x01, 0xf5, 0x15, 0x1d,
  0x06, 0x11, 0x0b, 0xd2, 0xfb, 0xff, 0x17, 0x15, 0x1e, 0xff, 0xf5, 0x0e,
  0x06, 0x05, 0xf4, 0x0a, 0xf3, 0xe5, 0xfd, 0xeb, 0xfd, 0xe5, 0xfe, 0xfa,
  0x03, 0xfb, 0xfc, 0x04, 0xfa, 0xfd, 0x03, 0x02, 0xfc, 0xf0, 0xfc, 0x02,
  0xff, 0xfc, 0x08, 0x16, 0x16, 0x18, 0x22, 0xf0, 0x03, 0xfe, 0x12, 0xe3,
  0x22, 0xfa, 0xf4, 0x04, 0xfe, 0xf1, 0x10, 0xfb, 0xf2, 0xe4, 0xf8, 0xe4,
  0xf3, 0xf5, 0x00, 0xf8, 0xff, 0xfb, 0x00, 0xf2, 0xf1, 0xf0, 0xfc, 0xf5,
  0xfd, 0xf4, 0xfb, 0xf8, 0xf3, 0x0a, 0xea, 0x1a, 0x0c, 0xfe, 0x07, 0xf8,
  0x01, 0xda, 0xfc, 0xe8, 0x1c, 0xec, 0xf4, 0xff, 0x02, 0xeb, 0x01, 0xf4,
  0x00, 0xe6, 0xf8, 0xf0, 0xee, 0xf8, 0xf6, 0xfd, 0x0e, 0x09, 0x02, 0xfe,
  0xf3, 0x04, 0xff, 0x01, 0xfb, 0xe7, 0xf9, 0xf8, 0xf5, 0x09, 0xfa, 0xe7,
  0x01, 0xf5, 0x17, 0x00, 0x05, 0xf9, 0x05, 0xe8, 0x14, 0xf3, 0xdc, 0xf5,
  0x03, 0xf5, 0xfb, 0x02, 0xed, 0xc8, 0xfc, 0x01, 0xff, 0xd6, 0xfd, 0xf9,
  0x00, 0xf3, 0x01, 0x0b, 0xf0, 0xf7, 0x0e, 0x0c, 0x02, 0xf9, 0x03, 0x01,
  0xe5, 0x00, 0xd4, 0x02, 0xfe, 0xeb, 0xfa, 0xde, 0x07, 0xf6, 0xf7, 0xe7,
  0x03, 0x20, 0xf6, 0xe7, 0xec, 0xff, 0xf6, 0x04, 0xf0, 0xf3, 0xfd, 0xf3,
  0xfd, 0xf1, 0xed, 0xf8, 0xf7, 0xee, 0x02, 0x03, 0xf1, 0xed, 0xff, 0xff,
  0x04, 0xe0, 0xfc, 0x02, 0xf1, 0xf1, 0xf9, 0xfd, 0xfe, 0xf1, 0xeb, 0xea,
  0xfa, 0xf7, 0xfa, 0xfa, 0x0d, 0xfa, 0xef, 0x01, 0xeb, 0xef, 0x06, 0x03,
  0x04, 0xe6, 0xf2, 0xfc, 0x07, 0xe9, 0xf1, 0xf8, 0xf9, 0xf2, 0xf8, 0xfa,
  0xed, 0xf9, 0xfe, 0xf4, 0x02, 0xe8, 0xf8, 0x01, 0xec, 0xfe, 0x00, 0xfd,
  0x09, 0xfe, 0x09, 0xe3, 0xf6, 0x02, 0x07, 0xef, 0x0a, 0x07, 0x01, 0xfe,
  0xf9, 0xf9, 0xef, 0x01, 0xfb, 0xfe, 0xf7, 0xfa, 0xee, 0xf5, 0xf6, 0xfe,
  0xf2, 0xf5, 0xff, 0xf4, 0xfc, 0xfc, 0xf1, 0x02, 0x02, 0xfc, 0xfe, 0xfa,
  0xeb, 0xfa, 0x17, 0xf9, 0xf6, 0xeb, 0xf8, 0xdf, 0xff, 0xec, 0xfb, 0x09,
  0x08, 0xf1, 0xfc, 0x01, 0xfc, 0xfe, 0xfa, 0x07, 0xf4, 0x0a, 0x06, 0xf8,
  0xef, 0xef, 0xfc, 0xfc, 0xfa, 0xe6, 0xfc, 0xf9, 0x05, 0xf5, 0xf6, 0xff,
  0x02, 0xf8, 0xff, 0xfe, 0xe4, 0x03, 0x0b, 0xf2, 0xf8, 0xfa, 0xed, 0xf5,
  0x0a, 0xe1, 0xfb, 0xfa, 0x0a, 0xf7, 0xf1, 0x04, 0xfc, 0xf9, 0x05, 0x05,
  0xfd, 0xf8, 0xfb, 0x01, 0xf6, 0xf4, 0xf2, 0xfc, 0xfe, 0xfa, 0x00, 0xfa,
  0x00, 0xed, 0x02, 0x02, 0xfa, 0xfb, 0x02, 0xff, 0xd9, 0xe8, 0x05, 0xf4,
  0xfc, 0xf8, 0xf4, 0xf3, 0x14, 0xea, 0xfd, 0x0d, 0x02, 0xf4, 0xfe, 0x01,
  0xfe, 0x00, 0xf6, 0x04, 0xfb, 0xe9, 0x00, 0xfe, 0xf4, 0x01, 0x02, 0xff,
  0xf3, 0x01, 0xfa, 0x03, 0xf8, 0xe8, 0xff, 0x00, 0x02, 0xf4, 0xff, 0x00,
  0xe2, 0xfd, 0xee, 0xfc, 0x0e, 0x1e, 0xd8, 0x23, 0x0d, 0xf9, 0xf0, 0x18,
  0x09, 0x06, 0xe8, 0x06, 0xf4, 0x07, 0xf7, 0xff, 0xf9, 0xf9, 0xf9, 0x02,
  0xec, 0xfa, 0x03, 0x00, 0xed, 0x08, 0xfe, 0xfe, 0xfb, 0x02, 0x04, 0xfe,
  0x05, 0x0b, 0x00, 0x00, 0xf1, 0x13, 0xf8, 0xd0, 0x08, 0x45, 0xdf, 0x28,
  0x17, 0xf7, 0xf8, 0x10, 0xfe, 0x0f, 0xe6, 0xf8, 0xf8, 0xf8, 0xf7, 0xfa,
  0xf8, 0x0d, 0x01, 0x0c, 0xfc, 0x09, 0xfb, 0x00, 0xec, 0x09, 0x00, 0x03,
  0xfa, 0x06, 0xfd, 0xff, 0xfd, 0xfe, 0xfe, 0x00, 0xf0, 0xef, 0xf5, 0x13,
  0x02, 0x1e, 0xf4, 0x42, 0x17, 0x02, 0x02, 0x03, 0x0c, 0x16, 0xed, 0x01,
  0xf7, 0x03, 0xf6, 0xf9, 0x0c, 0x02, 0xfd, 0x05, 0xf8, 0x0e, 0x01, 0xfe,
  0xf5, 0x09, 0x03, 0xfd, 0xfe, 0x0c, 0x09, 0x00, 0xfe, 0x08, 0xff, 0x00,
  0xf4, 0xe8, 0x05, 0x16, 0x0b, 0x1b, 0xe5, 0x2f, 0x17, 0xfc, 0xf9, 0xfb,
  0x13, 0x16, 0x06, 0xfd, 0xf3, 0x14, 0xee, 0x00, 0x07, 0x07, 0xfc, 0xfa,
  0xfd, 0x05, 0xff, 0xff, 0xee, 0x10, 0xfc, 0x03, 0xf1, 0x06, 0xfe, 0x03,
  0x01, 0x07, 0xf9, 0x09, 0xf5, 0xda, 0x08, 0x02, 0x07, 0x1f, 0xed, 0xf1,
  0x15, 0x05, 0xf9, 0xef, 0x2a, 0x0a, 0x08, 0xfb, 0x09, 0x20, 0xfa, 0x0b,
  0x06, 0x09, 0xf6, 0xfa, 0xfc, 0x16, 0x04, 0x04, 0x03, 0x27, 0x08, 0xfc,
  0x15, 0x2a, 0xfc, 0x01, 0x0d, 0x30, 0xfc, 0x03, 0x0d, 0x0f, 0x0a, 0x14,
  0x17, 0xf9, 0x11, 0x10, 0x12, 0x28, 0x0e, 0x08, 0x05, 0x0a, 0x0a, 0x18,
  0xff, 0xf0, 0x02, 0x05, 0xff, 0xf9, 0xfd, 0xf0, 0x0b, 0x11, 0x0d, 0x0d,
  0x10, 0x27, 0x15, 0x18, 0x1a, 0x11, 0x00, 0x0e, 0x09, 0x06, 0xfe, 0x0a,
  0x0d, 0xff, 0xed, 0x44, 0x0d, 0xde, 0xfa, 0x1f, 0xfb, 0xff, 0xfd, 0xe9,
  0xf5, 0xf9, 0xfa, 0x0b, 0xfb, 0xee, 0x0d, 0x0e, 0x00, 0xfb, 0x14, 0x00,
  0xfb, 0xfe, 0x09, 0x07, 0x04, 0xfd, 0xfe, 0x0f, 0xf3, 0x02, 0x04, 0x11,
  0x01, 0xf1, 0xfd, 0xfa, 0x01, 0x0e, 0xe8, 0x1f, 0x04, 0xd1, 0xf9, 0x16,
  0x02, 0xf7, 0xf2, 0xef, 0xf7, 0xfe, 0xf9, 0x01, 0xf0, 0xeb, 0xf4, 0x06,
  0x03, 0xdc, 0xf9, 0xf8, 0x02, 0xef, 0xf8, 0xfa, 0x02, 0xfc, 0x02, 0x03,
  0xf0, 0xf9, 0xf7, 0xfc, 0x02, 0xd1, 0x04, 0xf9, 0xd8, 0xfe, 0xfe, 0x05,
  0xed, 0x0f, 0xf3, 0xfa, 0x05, 0x0b, 0xf9, 0x00, 0x07, 0xee, 0x17, 0x01,
  0xf6, 0x01, 0x01, 0xf5, 0x04, 0x06, 0x06, 0xf4, 0x01, 0x0b, 0xf8, 0xfd,
  0xf8, 0x13, 0xf9, 0x04, 0xef, 0x0a, 0xfd, 0xfe, 0x02, 0x14, 0x02, 0xfd,
  0xe3, 0xf9, 0xd3, 0xfc, 0xf3, 0x11, 0xe9, 0x0d, 0x02, 0x1c, 0xff, 0x0b,
  0xfe, 0xf6, 0x16, 0x0b, 0xf9, 0xed, 0x03, 0x03, 0x1b, 0x0b, 0x16, 0xfb,
  0x0a, 0x08, 0xf4, 0x01, 0xf2, 0x01, 0x09, 0x0c, 0x00, 0x04, 0x0e, 0x12,
  0x01, 0x06, 0x04, 0x06, 0xe5, 0x01, 0xe5, 0xf8, 0xf3, 0x05, 0xda, 0x12,
  0xf8, 0x2b, 0xee, 0x05, 0xf5, 0x09, 0xf4, 0x01, 0xfc, 0xef, 0xf8, 0x08,
  0x18, 0xf7, 0xf7, 0xff, 0x02, 0x13, 0x08, 0x13, 0xe7, 0x0f, 0x08, 0x19,
  0x08, 0x14, 0x04, 0x09, 0x03, 0x00, 0x0a, 0x0d, 0x0f, 0xe8, 0xd2, 0x24,
  0xfd, 0xf2, 0xeb, 0x1f, 0xff, 0x0e, 0xfe, 0x08, 0xf9, 0xf7, 0xe2, 0x0f,
  0x0a, 0xe8, 0xf2, 0x0a, 0x11, 0xdf, 0xf1, 0xfb, 0x07, 0xfa, 0x0b, 0x0d,
  0xfa, 0x12, 0x0d, 0x0e, 0x05, 0x04, 0xe6, 0x0b, 0x01, 0xfc, 0x08, 0xfe,
  0xe6, 0x02, 0xd4, 0x07, 0xf3, 0xcc, 0xf8, 0xce, 0xfb, 0x20, 0xdc, 0xf4,
  0xed, 0x00, 0xf1, 0x0b, 0xf9, 0xf0, 0xf7, 0xf4, 0xfd, 0x04, 0xf5, 0x08,
  0x0b, 0xf7, 0x05, 0xfd, 0xfa, 0x02, 0x0b, 0x12, 0x00, 0x02, 0xeb, 0xff,
  0xfa, 0xed, 0xf8, 0x08, 0x06, 0x0e, 0xe3, 0xe6, 0xf3, 0xe5, 0xf8, 0xdf,
  0xec, 0x36, 0xea, 0x28, 0x02, 0x15, 0xf0, 0xee, 0xf7, 0x12, 0xfc, 0x00,
  0x06, 0x19, 0x0d, 0xe8, 0xfa, 0x0e, 0x02, 0xfe, 0x07, 0x09, 0x08, 0x05,
  0x07, 0x0a, 0xfe, 0x07, 0xff, 0xfc, 0x03, 0xf8, 0x06, 0xff, 0xc9, 0x25,
  0xf6, 0xf7, 0x0f, 0xe2, 0x13, 0x25, 0x1a, 0x0f, 0x00, 0x15, 0xed, 0xee,
  0xf4, 0x07, 0x00, 0x09, 0x13, 0x00, 0x1a, 0xf3, 0x0a, 0x1c, 0x00, 0x0d,
  0x1a, 0x1c, 0x00, 0x0a, 0x0c, 0x21, 0xf8, 0x0a, 0xff, 0x02, 0x05, 0x07,
  0x1d, 0xf9, 0xbb, 0x2d, 0xf2, 0xc0, 0x0c, 0xed, 0x07, 0x23, 0x23, 0x03,
  0x02, 0x0d, 0xff, 0x06, 0xf8, 0x10, 0xff, 0x05, 0x29, 0xfe, 0x08, 0xf8,
  0x0a, 0x2a, 0xf5, 0x0c, 0x08, 0x16, 0x17, 0x0a, 0xf9, 0x0b, 0xff, 0x11,
  0xf7, 0x06, 0x0d, 0x0b, 0x19, 0x05, 0xbd, 0x0f, 0xea, 0xf0, 0x13, 0xcd,
  0x10, 0x26, 0x13, 0x01, 0xeb, 0x17, 0xf7, 0xfd, 0xf3, 0x02, 0x06, 0x00,
  0x17, 0x14, 0x06, 0xfa, 0xfb, 0x0f, 0xf4, 0x1c, 0x08, 0x0a, 0x10, 0x1c,
  0xfe, 0x04, 0xfa, 0x1a, 0x09, 0xf2, 0x0c, 0xfc, 0xf7, 0x13, 0xb5, 0x2b,
  0xff, 0xd6, 0xed, 0xcd, 0x16, 0x21, 0x10, 0x06, 0x00, 0x34, 0x01, 0x02,
  0xfe, 0x07, 0x0b, 0x03, 0x17, 0x06, 0xe3, 0xf5, 0x03, 0x1d, 0xfd, 0x16,
  0x1d, 0xfa, 0xfc, 0x0d, 0xf8, 0x0c, 0xff, 0x0e, 0xf6, 0xff, 0x11, 0xf3,
  0x0f, 0x0a, 0xbf, 0x14, 0xf1, 0xd5, 0xe6, 0xc6, 0x1c, 0x1d, 0x0e, 0x0b,
  0x08, 0x1c, 0xfb, 0x1a, 0x0a, 0x23, 0xec, 0x15, 0x18, 0x05, 0x12, 0x04,
  0x12, 0x28, 0xf2, 0x10, 0x01, 0x06, 0xf6, 0x0d, 0x06, 0x11, 0x00, 0x05,
  0xfd, 0x0c, 0xfb, 0xff, 0x1b, 0x05, 0xb9, 0x1b, 0x08, 0xdc, 0x05, 0xc4,
  0x13, 0x14, 0x0e, 0x11, 0x03, 0x22, 0x24, 0xf9, 0x07, 0x13, 0x0c, 0xfc,
  0x31, 0xf0, 0xe4, 0x10, 0x1c, 0x13, 0x08, 0x19, 0x03, 0x10, 0xf5, 0xf9,
  0xfa, 0x0e, 0xf6, 0xff, 0xfa, 0xf1, 0xef, 0x13, 0x1c, 0x05, 0xbe, 0xfc,
  0xff, 0xd0, 0x02, 0xc1, 0x06, 0x11, 0x19, 0x0e, 0x0c, 0x20, 0x1a, 0xe7,
  0xe6, 0x17, 0xf9, 0x2d, 0x22, 0xf5, 0xf3, 0x0b, 0x0e, 0x04, 0x02, 0x1e,
  0x04, 0x06, 0x02, 0xf5, 0x10, 0x18, 0xed, 0x11, 0xfa, 0x02, 0xf6, 0x01,
  0x0a, 0x0a, 0xb8, 0x00, 0xed, 0xc7, 0xfe, 0xcd, 0x0b, 0xf3, 0x1d, 0x0a,
  0x06, 0x11, 0x08, 0x05, 0xde, 0xe9, 0xfd, 0xff, 0x0b, 0xe1, 0xf3, 0xec,
  0x01, 0xff, 0x10, 0x0b, 0xff, 0x01, 0x0f, 0x09, 0x16, 0x0d, 0xfa, 0x05,
  0xff, 0x21, 0xf1, 0xfe, 0x1e, 0x15, 0xd0, 0x10, 0x17, 0xe0, 0xea, 0xd1,
  0x1b, 0x0f, 0x20, 0xf8, 0x06, 0x0c, 0xf4, 0x13, 0xf1, 0x02, 0xe2, 0xff,
  0x00, 0xd5, 0xfe, 0xfd, 0x0c, 0xe4, 0x16, 0xfd, 0xf8, 0xf4, 0xf2, 0x13,
  0x06, 0xeb, 0x03, 0x07, 0xf9, 0xf5, 0xfc, 0xf4, 0x25, 0x45, 0xe9, 0x0a,
  0x17, 0xec, 0xfe, 0xde, 0x2c, 0x10, 0x25, 0xff, 0x01, 0x12, 0x1e, 0x06,
  0xf9, 0x1d, 0xf5, 0x03, 0xfc, 0x0c, 0xfe, 0x02, 0x04, 0xf9, 0x03, 0xf8,
  0xfb, 0xf5, 0xfc, 0x00, 0xfd, 0xf9, 0xfe, 0x0b, 0x04, 0xf9, 0xff, 0x05,
  0x34, 0x10, 0xee, 0x12, 0xf8, 0xd9, 0xfe, 0xd5, 0x22, 0x05, 0x34, 0xe7,
  0xfe, 0xf9, 0x0d, 0x1e, 0x03, 0xf2, 0xff, 0xff, 0x05, 0xfa, 0x01, 0x06,
  0xfe, 0xfb, 0xf6, 0x00, 0xf2, 0x04, 0x0c, 0x12, 0xfd, 0xf7, 0x00, 0xf6,
  0x00, 0xff, 0x0a, 0x00, 0x20, 0x10, 0x01, 0x14, 0x01, 0xdd, 0xef, 0xc4,
  0x25, 0xeb, 0x08, 0xdf, 0x16, 0xf9, 0x0f, 0x0f, 0x17, 0xef, 0xed, 0xf5,
  0x05, 0xfb, 0xff, 0x09, 0xfe, 0xed, 0xf0, 0xff, 0xff, 0xf7, 0x12, 0xfb,
  0x01, 0xfe, 0xe7, 0xed, 0xf7, 0xf9, 0xfa, 0xf1, 0x20, 0x0c, 0xf4, 0x09,
  0x14, 0xe3, 0xee, 0xe3, 0x1c, 0xf3, 0x1e, 0x01, 0x14, 0xf0, 0x10, 0xf5,
  0xf9, 0xea, 0xff, 0xf8, 0x08, 0xdd, 0x0d, 0xfc, 0xf3, 0xfe, 0x04, 0xf7,
  0x00, 0xf9, 0x0f, 0x04, 0xfd, 0xf9, 0x02, 0x02, 0x01, 0x05, 0xf9, 0xfd,
  0x08, 0xfd, 0xf7, 0x14, 0x0e, 0xf7, 0x10, 0xf1, 0x0b, 0xf5, 0x0b, 0xde,
  0x0c, 0xff, 0x18, 0xf1, 0xe9, 0x01, 0xf8, 0x08, 0x09, 0xfc, 0x03, 0xf0,
  0xf9, 0xfc, 0xfa, 0xfd, 0xfa, 0xf4, 0xf8, 0x09, 0x01, 0xec, 0x11, 0xfe,
  0x02, 0x0a, 0xfc, 0xfb, 0x2a, 0x0b, 0xe3, 0xfe, 0x05, 0xe7, 0x10, 0xf9,
  0x03, 0x1a, 0x05, 0xed, 0x05, 0xfe, 0x1b, 0xf7, 0x07, 0x02, 0x19, 0x0a,
  0x10, 0x15, 0xfd, 0xe3, 0x0a, 0x0e, 0xf6, 0x10, 0x06, 0x05, 0x0b, 0xfb,
  0x03, 0x11, 0x06, 0xff, 0xfe, 0x11, 0x03, 0xff, 0xfe, 0x1b, 0x01, 0x33,
  0x01, 0xee, 0x11, 0xeb, 0x23, 0x43, 0xf2, 0x2e, 0x08, 0x22, 0xf9, 0x2b,
  0x10, 0x12, 0xff, 0x02, 0x09, 0x37, 0xf9, 0xf8, 0x0f, 0x27, 0x05, 0x03,
  0x1e, 0x28, 0x06, 0x00, 0x2a, 0x37, 0xed, 0xfd, 0x11, 0x26, 0xfd, 0x13,
  0xfc, 0xf0, 0x01, 0x06, 0xe3, 0xe3, 0x06, 0xcf, 0x09, 0x06, 0xf2, 0x19,
  0x11, 0x08, 0xf1, 0x0e, 0x06, 0x11, 0xf9, 0x0a, 0xff, 0x04, 0x16, 0xfc,
  0xfe, 0x15, 0xfe, 0xf5, 0x1d, 0x19, 0xfd, 0xfc, 0xfd, 0x25, 0x01, 0x0a,
  0xf9, 0x11, 0x00, 0xf5, 0x09, 0xe0, 0xf1, 0x1f, 0xfd, 0xe8, 0x08, 0xdd,
  0x25, 0x22, 0x01, 0x32, 0xfc, 0x01, 0xfa, 0xf8, 0x0c, 0x06, 0xf5, 0x17,
  0x04, 0x10, 0xf8, 0xff, 0x03, 0x17, 0xfd, 0xf7, 0x10, 0x03, 0x03, 0x0c,
  0xfa, 0x0c, 0x09, 0x05, 0x02, 0x08, 0x10, 0xfe, 0x09, 0xf5, 0xda, 0x27,
  0xfc, 0xf1, 0x21, 0xca, 0x20, 0x14, 0x0f, 0x32, 0x06, 0x26, 0x05, 0xfc,
  0x06, 0x0a, 0xff, 0xfe, 0x19, 0x10, 0x0c, 0xf8, 0xfc, 0x00, 0x0b, 0xfe,
  0xf2, 0xfd, 0xf5, 0x09, 0xf5, 0x01, 0x0e, 0x11, 0x08, 0x0e, 0x0a, 0x12,
  0x0b, 0x04, 0xcb, 0x1e, 0x03, 0xe0, 0xf3, 0xd6, 0x2b, 0x11, 0x0a, 0x4d,
  0x08, 0x18, 0xf8, 0x0c, 0xf0, 0xf3, 0xf5, 0x16, 0x10, 0x0a, 0xef, 0xf2,
  0xec, 0x04, 0xf4, 0x02, 0x01, 0xf6, 0x0f, 0x08, 0x05, 0x04, 0x12, 0x0f,
  0xfe, 0x0a, 0x03, 0x06, 0x0c, 0x18, 0xd2, 0x2f, 0x02, 0xd1, 0xeb, 0xe7,
  0x17, 0x0b, 0x0b, 0x51, 0xf7, 0x16, 0x01, 0xfa, 0xd7, 0x05, 0xf6, 0x10,
  0x11, 0xf4, 0xe5, 0xf5, 0xe4, 0x14, 0xff, 0x0d, 0x0b, 0x0a, 0xfc, 0x11,
  0xfd, 0x06, 0x0a, 0x0c, 0xff, 0x06, 0x0a, 0x11, 0x19, 0x25, 0xee, 0x26,
  0xf8, 0xbb, 0xe8, 0xd4, 0x27, 0x14, 0x10, 0x2d, 0xfd, 0x19, 0xfe, 0x00,
  0xf3, 0x12, 0xea, 0x12, 0x03, 0x11, 0xf4, 0xf8, 0xe9, 0x0b, 0x00, 0x0d,
  0x02, 0x08, 0xf2, 0x05, 0xf9, 0x08, 0x0c, 0x00, 0x01, 0xff, 0x0b, 0xf4,
  0x1c, 0x26, 0x01, 0x19, 0xdf, 0xdd, 0xe6, 0xe2, 0x27, 0x14, 0x2d, 0x18,
  0x00, 0x27, 0x17, 0xfa, 0xfd, 0x10, 0xf1, 0x0f, 0xfa, 0xff, 0x09, 0x0c,
  0xf2, 0x07, 0x09, 0x14, 0xe3, 0xf5, 0x00, 0x06, 0xf6, 0xf8, 0x1a, 0x03,
  0xfd, 0xf2, 0x00, 0x12, 0x21, 0x20, 0x10, 0x0e, 0xf0, 0xe2, 0xc9, 0xec,
  0x28, 0x10, 0x29, 0x2b, 0xe6, 0x26, 0x27, 0x0f, 0xf1, 0xfc, 0xfa, 0x28,
  0xf4, 0x0c, 0xf7, 0x19, 0xe3, 0xe3, 0x09, 0x09, 0xf0, 0xef, 0xff, 0xf7,
  0x03, 0xf8, 0x18, 0xf9, 0xfd, 0xf1, 0x03, 0x09, 0x32, 0x19, 0x09, 0x04,
  0xf8, 0xe6, 0xd3, 0x07, 0x3a, 0x06, 0x1f, 0x18, 0x01, 0xfc, 0x16, 0x09,
  0xe1, 0xf4, 0xfb, 0x21, 0xda, 0xfd, 0x0c, 0xf9, 0x09, 0xf6, 0xff, 0xf4,
  0xfd, 0xf6, 0x0c, 0x00, 0x05, 0x08, 0x05, 0xef, 0xf3, 0xee, 0x05, 0x05,
  0x27, 0x21, 0x09, 0xed, 0x13, 0xe4, 0xeb, 0xf7, 0x05, 0xe5, 0xff, 0x21,
  0xfc, 0xfd, 0x04, 0x18, 0xe9, 0xf6, 0xf5, 0x11, 0xf5, 0xeb, 0xfb, 0x09,
  0x1f, 0xf7, 0x0a, 0xf1, 0xff, 0x03, 0x09, 0x00, 0xfe, 0xfd, 0x02, 0xfb,
  0xf7, 0xf6, 0x10, 0xff, 0x18, 0xf4, 0x12, 0xff, 0x0e, 0xe8, 0xd6, 0x0d,
  0xf9, 0xee, 0x02, 0x2d, 0xf6, 0x07, 0xf5, 0x09, 0xf6, 0xd6, 0xe1, 0x04,
  0x12, 0xde, 0xfa, 0xf7, 0x10, 0xf4, 0xf0, 0xfe, 0x02, 0x14, 0x1c, 0x11,
  0xfa, 0xf4, 0x01, 0x0c, 0xf9, 0x01, 0x06, 0x0c, 0x06, 0xd9, 0x02, 0xf7,
  0xf9, 0xea, 0xd9, 0x0e, 0xfa, 0xf2, 0x03, 0x2d, 0xfd, 0xfe, 0xff, 0x1a,
  0x05, 0xeb, 0x19, 0xe2, 0x14, 0xf6, 0xeb, 0xee, 0x0e, 0xfa, 0x1a, 0x16,
  0x14, 0x26, 0x1b, 0x0e, 0x0b, 0x23, 0x04, 0x0c, 0x09, 0x13, 0x19, 0x0c,
  0x0f, 0xe7, 0x00, 0x04, 0x04, 0xe1, 0xe5, 0x2c, 0x0c, 0xee, 0xf4, 0x34,
  0x08, 0xef, 0xf0, 0x21, 0x02, 0xc6, 0x05, 0xfa, 0x0a, 0xe0, 0x0d, 0xf5,
  0x03, 0xea, 0x0c, 0x21, 0x0c, 0x07, 0x12, 0x15, 0x0a, 0x0b, 0x1b, 0x0c,
  0x08, 0x09, 0x0c, 0x0c, 0x00, 0xd2, 0x14, 0x04, 0x09, 0xfb, 0xf1, 0x2d,
  0xe9, 0xf7, 0x02, 0x06, 0xf8, 0xda, 0xea, 0x03, 0xfc, 0xc7, 0xfe, 0xeb,
  0x0f, 0xd2, 0xec, 0x00, 0x1e, 0xf4, 0x19, 0xff, 0x15, 0x08, 0xfe, 0x0d,
  0x07, 0x0d, 0x0a, 0x17, 0x02, 0x11, 0x0f, 0x09, 0xef, 0xd1, 0x0f, 0x08,
  0xff, 0xe8, 0xf5, 0x39, 0xed, 0xdf, 0x14, 0xe6, 0x07, 0xd0, 0xed, 0xe5,
  0x02, 0xda, 0xe9, 0x07, 0x08, 0xd9, 0x0c, 0x05, 0x13, 0xe9, 0xff, 0x06,
  0x04, 0xef, 0x10, 0x0d, 0x03, 0xef, 0x0a, 0x15, 0xfc, 0x01, 0x06, 0x11,
  0xf3, 0xe8, 0x1f, 0xef, 0xfe, 0xf1, 0xdb, 0x0b, 0xfa, 0xf0, 0x07, 0xe3,
  0x16, 0xdc, 0x05, 0xfe, 0xf1, 0xd7, 0xfd, 0xe1, 0x0e, 0xd8, 0x08, 0xf2,
  0x06, 0xe8, 0x07, 0x11, 0x0b, 0xe0, 0x16, 0x0d, 0x05, 0xfb, 0x05, 0x11,
  0xf9, 0xed, 0x0c, 0x0f, 0xfd, 0xe9, 0x24, 0x0e, 0xf1, 0xed, 0xe8, 0x17,
  0xf3, 0xf1, 0xf7, 0x04, 0xf7, 0xe1, 0xf9, 0x00, 0x05, 0xc2, 0xf0, 0xef,
  0x16, 0xd2, 0xfa, 0xf5, 0x0a, 0xe7, 0x04, 0x15, 0x07, 0xf1, 0x0b, 0x0a,
  0x0a, 0xea, 0x0a, 0x01, 0x01, 0xf2, 0xfd, 0x05, 0x02, 0xe8, 0x28, 0xed,
  0xf2, 0x14, 0xff, 0x19, 0xfe, 0x04, 0x06, 0xfd, 0xee, 0xeb, 0xfc, 0xf6,
  0xf3, 0xe4, 0x0d, 0xff, 0x19, 0xda, 0x0c, 0x02, 0xfb, 0xe1, 0x04, 0x0a,
  0xfb, 0xd3, 0x02, 0x00, 0xff, 0xdf, 0xfc, 0x0a, 0x01, 0xe1, 0x09, 0x07,
  0xe0, 0xf9, 0x1c, 0xe5, 0xf0, 0x04, 0x1b, 0x1a, 0xe8, 0xfe, 0x1f, 0xf9,
  0xe7, 0xe5, 0x09, 0x01, 0xf0, 0xf3, 0xeb, 0x13, 0x02, 0xec, 0x05, 0xf6,
  0xe9, 0xdd, 0xfa, 0xfd, 0xed, 0xe7, 0x0d, 0xec, 0xf4, 0xef, 0xff, 0xe7,
  0xf3, 0xdf, 0x05, 0xf1, 0xf8, 0x02, 0xf0, 0xda, 0xfc, 0x0a, 0x21, 0x03,
  0xea, 0x04, 0xf4, 0x05, 0x05, 0xe9, 0xf7, 0x07, 0xf0, 0xf0, 0x00, 0xf9,
  0x01, 0xe0, 0xf2, 0x06, 0xf7, 0xf2, 0x02, 0x00, 0x07, 0xed, 0x0b, 0xdf,
  0x0c, 0xf2, 0xf5, 0xef, 0xf1, 0xf7, 0xfd, 0xea, 0xfb, 0xfc, 0x0f, 0xd7,
  0xf6, 0x00, 0x14, 0x0b, 0xf6, 0x07, 0x1e, 0xf4, 0xf1, 0xff, 0x04, 0xff,
  0xeb, 0xfd, 0xf4, 0xfd, 0x05, 0xf0, 0xfe, 0xfe, 0xfe, 0xf9, 0x02, 0xfb,
  0x12, 0x09, 0x0f, 0xf7, 0x05, 0x07, 0xf4, 0x01, 0x03, 0x01, 0x07, 0xfe,
  0xe4, 0x07, 0x01, 0xe6, 0xf5, 0x05, 0x05, 0x28, 0x00, 0xea, 0x22, 0xfa,
  0xfb, 0xfe, 0x0b, 0x17, 0x00, 0x14, 0x0d, 0x0e, 0x00, 0xff, 0xfa, 0xf7,
  0x05, 0xfa, 0xf2, 0x02, 0x0d, 0x0d, 0x04, 0x10, 0x0d, 0x0a, 0x10, 0x01,
  0x05, 0x08, 0x06, 0xfa, 0xf0, 0x15, 0x12, 0xe9, 0x0a, 0x09, 0xec, 0x1f,
  0x04, 0xe7, 0x14, 0xfa, 0xf7, 0x0b, 0x02, 0x18, 0xe7, 0xff, 0x1a, 0x08,
  0xfd, 0xfe, 0xff, 0xee, 0x04, 0xfd, 0x00, 0x09, 0x13, 0x06, 0x07, 0x06,
  0x0c, 0x1d, 0x09, 0x09, 0xff, 0x22, 0x0e, 0xfc, 0xff, 0xfe, 0x23, 0xec,
  0xf6, 0x09, 0x0a, 0xed, 0x0d, 0x09, 0x0e, 0x0b, 0xf1, 0xe7, 0x04, 0xf7,
  0x04, 0x08, 0x07, 0xf8, 0xee, 0x02, 0xfa, 0x07, 0xf8, 0xee, 0xfe, 0xfc,
  0xf6, 0x04, 0xfe, 0xfd, 0xf3, 0xf8, 0xf9, 0xfe, 0xfe, 0xfb, 0x00, 0xf7,
  0x06, 0x06, 0x12, 0x04, 0xef, 0xf8, 0x1b, 0xf5, 0xfe, 0x16, 0x2f, 0x05,
  0xe0, 0xe7, 0xf2, 0xf4, 0xec, 0x0c, 0x0d, 0x07, 0xfb, 0xf3, 0x06, 0x0a,
  0xf5, 0xe5, 0xfb, 0xfd, 0x04, 0xf7, 0xff, 0x04, 0xfe, 0x09, 0xff, 0x01,
  0x01, 0x00, 0x01, 0x00, 0xee, 0xf9, 0x12, 0x17, 0xfd, 0xe7, 0x22, 0x31,
  0xeb, 0xf9, 0x48, 0xe8, 0xde, 0x14, 0x14, 0xfd, 0xfa, 0x0d, 0x04, 0xfb,
  0xe9, 0x03, 0x19, 0xf3, 0x0e, 0x06, 0x00, 0xfd, 0xfb, 0x06, 0xf6, 0xff,
  0x01, 0xf8, 0xfc, 0x04, 0x0c, 0xf4, 0xfe, 0xff, 0xd2, 0xe9, 0x00, 0x28,
  0xef, 0xda, 0x17, 0x22, 0xe5, 0xfc, 0x1a, 0xde, 0xdc, 0x02, 0x19, 0xde,
  0xff, 0x02, 0x08, 0xe0, 0xeb, 0xf9, 0x11, 0xf6, 0xfe, 0xf2, 0x0d, 0xf5,
  0xf3, 0x02, 0xf6, 0xfb, 0xfc, 0xfd, 0xfd, 0xff, 0x0b, 0xe7, 0x00, 0xfb,
  0xfc, 0x06, 0xe4, 0x20, 0x08, 0xec, 0x2d, 0x21, 0xf2, 0x0e, 0xf5, 0xc9,
  0x10, 0x06, 0x04, 0xf6, 0xfb, 0x07, 0x10, 0xf2, 0xf9, 0x15, 0xfb, 0x01,
  0x07, 0xfc, 0xfc, 0xf6, 0xf3, 0x17, 0x00, 0x02, 0xfd, 0x0f, 0xfa, 0xfa,
  0x10, 0x02, 0xfe, 0xff, 0x12, 0x14, 0xe9, 0x1b, 0x02, 0xe7, 0x11, 0x06,
  0xf2, 0xf0, 0x00, 0xde, 0x21, 0x0c, 0x09, 0x0b, 0xfd, 0x12, 0xfe, 0xfa,
  0xec, 0x09, 0x03, 0xff, 0xfd, 0x02, 0xf6, 0xfb, 0xfb, 0xee, 0xff, 0xf4,
  0xf7, 0x05, 0xfa, 0xfb, 0x0f, 0xf6, 0xfc, 0xff, 0xfd, 0xf0, 0xe6, 0x12,
  0xf2, 0xea, 0xed, 0xdd, 0x01, 0xf5, 0xfe, 0xf6, 0x10, 0x0d, 0x12, 0xf4,
  0xf1, 0x05, 0x10, 0xf8, 0xff, 0x0c, 0x15, 0x00, 0xf3, 0x12, 0xf3, 0x04,
  0x07, 0x07, 0xfe, 0xf8, 0xf4, 0xf8, 0xff, 0xfe, 0xfe, 0xf1, 0x03, 0xfe,
  0xc9, 0xe6, 0xe0, 0xe6, 0xe6, 0xfe, 0xf6, 0xcf, 0xf7, 0xee, 0xf3, 0xf0,
  0x06, 0xfc, 0xfa, 0xf6, 0xf1, 0x10, 0xf9, 0x05, 0x01, 0x0a, 0x04, 0xff,
  0xfe, 0x15, 0xfe, 0x04, 0xfb, 0x09, 0xfe, 0xff, 0xf5, 0x04, 0xfc, 0x00,
  0xfe, 0x0a, 0x0b, 0x00, 0xcb, 0xe4, 0xd3, 0xe6, 0xf6, 0xf1, 0xd2, 0xeb,
  0xfe, 0xf1, 0xe5, 0xf9, 0x0d, 0x01, 0xfa, 0xe5, 0x02, 0x0a, 0xfd, 0xfb,
  0x0d, 0x21, 0xf3, 0xfa, 0x07, 0x2a, 0xfb, 0x03, 0xff, 0x28, 0xf9, 0x05,
  0xf9, 0x28, 0xfb, 0xff, 0x00, 0x1e, 0xfc, 0xfd, 0xe2, 0x07, 0xe8, 0xf2,
  0xf7, 0xed, 0xee, 0xd2, 0x05, 0x00, 0xe9, 0xf6, 0x10, 0x0c, 0xff, 0xf8,
  0x0b, 0x22, 0x08, 0x09, 0x0d, 0x24, 0x00, 0x15, 0xf7, 0x2a, 0xf8, 0x10,
  0x06, 0x0a, 0xfe, 0x0d, 0x01, 0x1d, 0xff, 0x08, 0x0b, 0x24, 0xfd, 0x06,
  0xe3, 0xf4, 0xf0, 0x00, 0xeb, 0xfe, 0xe4, 0xf3, 0x02, 0xde, 0xf7, 0xeb,
  0x0b, 0xdf, 0xf7, 0xec, 0x0b, 0xfa, 0x06, 0x11, 0xf9, 0x0c, 0x07, 0x10,
  0xf9, 0x0d, 0x05, 0x04, 0xf1, 0x09, 0xfc, 0x07, 0xf9, 0xfe, 0x00, 0x08,
  0x06, 0x09, 0x03, 0x06, 0xe3, 0xf3, 0xed, 0xf1, 0x06, 0xf3, 0xd2, 0xdc,
  0x17, 0xf4, 0xed, 0xeb, 0x15, 0x02, 0xfd, 0xf0, 0x07, 0x06, 0xf1, 0x11,
  0xed, 0xf3, 0x04, 0x06, 0x08, 0x08, 0x01, 0x08, 0x07, 0x05, 0xf9, 0x05,
  0xef, 0xf6, 0xfc, 0xfc, 0x04, 0x03, 0x01, 0x09, 0xef, 0xf8, 0xe5, 0xe4,
  0xfa, 0x20, 0xde, 0xe6, 0x16, 0xf4, 0xeb, 0xf0, 0x09, 0xee, 0x06, 0xf9,
  0xf7, 0x09, 0xf8, 0x0c, 0xfe, 0xfa, 0xfc, 0x0d, 0x0f, 0x0c, 0x05, 0x03,
  0xf1, 0x16, 0xf9, 0xfe, 0xfb, 0x1a, 0xfa, 0x00, 0x0b, 0x12, 0xff, 0x0c,
  0x12, 0x0b, 0xf0, 0xda, 0xf5, 0x1d, 0xf7, 0x09, 0x19, 0xe8, 0x01, 0xe3,
  0x03, 0xe9, 0x0e, 0xf4, 0xfd, 0x02, 0x09, 0x09, 0xf7, 0xf4, 0xf8, 0x0f,
  0x00, 0xed, 0x07, 0x0a, 0x03, 0xfb, 0x09, 0x05, 0x0d, 0x00, 0x0a, 0x06,
  0x00, 0x18, 0x0c, 0x0b, 0x22, 0x0b, 0x03, 0xdd, 0x03, 0x1f, 0xf8, 0xe9,
  0x13, 0xff, 0x1e, 0xd1, 0x0d, 0xfe, 0x07, 0xdf, 0xf2, 0xe5, 0x17, 0x08,
  0xe9, 0xf9, 0xfc, 0x09, 0xf9, 0xf2, 0xfa, 0x04, 0xfc, 0xf5, 0x09, 0xfd,
  0x02, 0xee, 0x12, 0xfe, 0x03, 0xfe, 0x00, 0x01, 0x32, 0x05, 0xf4, 0xc8,
  0xeb, 0x15, 0xf2, 0xf1, 0xfc, 0xfd, 0x48, 0xed, 0x00, 0xe4, 0x0c, 0x00,
  0xf5, 0xd0, 0x1a, 0xf2, 0xf2, 0xe5, 0x11, 0xef, 0xf8, 0xff, 0xf5, 0xfc,
  0x0f, 0x05, 0xf7, 0x03, 0xe9, 0xfd, 0x09, 0x02, 0xff, 0xf5, 0x0f, 0x05,
  0x18, 0xf1, 0x02, 0xc2, 0xf7, 0x0b, 0xf5, 0x04, 0x18, 0xf7, 0x52, 0xdf,
  0xe2, 0xeb, 0x0d, 0xe7, 0xeb, 0xf6, 0x05, 0xfe, 0x0c, 0xec, 0x12, 0xf8,
  0xf9, 0xfa, 0x05, 0x04, 0xfa, 0xf7, 0xf7, 0xf3, 0xf1, 0xee, 0x08, 0x04,
  0x02, 0xf8, 0x0b, 0x01, 0x0b, 0xf7, 0x0e, 0xe2, 0xfc, 0xfe, 0x05, 0x18,
  0xf7, 0x17, 0x44, 0xe3, 0xf2, 0xff, 0x1d, 0xf0, 0xec, 0xf0, 0xfe, 0xfe,
  0x11, 0xf4, 0x0f, 0x01, 0xff, 0xf4, 0xfe, 0xf6, 0xf0, 0xf4, 0xfe, 0xf6,
  0xf4, 0xe3, 0x11, 0xfc, 0x05, 0xf0, 0x02, 0x00, 0x02, 0xda, 0x10, 0xf8,
  0x04, 0xf4, 0x0a, 0x27, 0xf7, 0xf7, 0x51, 0xee, 0xda, 0x00, 0x15, 0xe9,
  0xf9, 0xed, 0x0a, 0x0c, 0xf6, 0xfe, 0x09, 0x02, 0xf5, 0xf9, 0x06, 0xfe,
  0x01, 0xf4, 0xf6, 0x06, 0xf8, 0xe1, 0xf6, 0x04, 0x03, 0xe8, 0x07, 0x0f,
  0x3a, 0xfa, 0x27, 0xfc, 0x07, 0xf6, 0x09, 0x1f, 0xec, 0x0e, 0x32, 0xe6,
  0xda, 0x15, 0x27, 0xef, 0xfa, 0xfc, 0x1b, 0xf7, 0xea, 0xee, 0x04, 0x0c,
  0xf2, 0x04, 0x02, 0x07, 0xff, 0xf8, 0xff, 0xfd, 0xfb, 0xf4, 0x00, 0x00,
  0xff, 0xfd, 0xfa, 0x02, 0x3a, 0xd4, 0x0f, 0xfa, 0x09, 0xfb, 0x32, 0x14,
  0xf6, 0x0a, 0x33, 0xc4, 0xe5, 0x17, 0x18, 0xf8, 0xfc, 0x03, 0x13, 0xf0,
  0xec, 0xf4, 0xf8, 0xfa, 0xfb, 0xf8, 0xf6, 0x03, 0xf0, 0xf3, 0xf5, 0x00,
  0x01, 0xe9, 0x07, 0xff, 0xf9, 0xf2, 0xff, 0x01, 0x1e, 0xc3, 0x11, 0xfc,
  0xf4, 0xeb, 0x37, 0x06, 0xf7, 0xff, 0x1b, 0xdd, 0xeb, 0x08, 0x14, 0x01,
  0xec, 0x0d, 0x0e, 0xf5, 0xe6, 0xf9, 0x0a, 0xfc, 0xfb, 0xf2, 0x10, 0x14,
  0xf1, 0x00, 0xfa, 0x0e, 0x02, 0xfe, 0xf0, 0x0b, 0xff, 0x0b, 0xfa, 0x06,
  0x15, 0xee, 0xf6, 0xee, 0xf7, 0xdb, 0x35, 0xfa, 0xfb, 0x0a, 0x1e, 0xda,
  0xef, 0x10, 0xff, 0xec, 0xfd, 0x05, 0xf9, 0xee, 0xf7, 0x0b, 0x01, 0xfc,
  0xfe, 0x15, 0xf2, 0x07, 0xfa, 0x03, 0xf6, 0xf9, 0x0b, 0x10, 0xfa, 0xfe,
  0x00, 0x0f, 0xfc, 0xf7, 0xe7, 0xfc, 0xec, 0x00, 0xf3, 0x08, 0x19, 0x10,
  0x05, 0x0e, 0x2b, 0xe0, 0xf2, 0xff, 0x00, 0xef, 0x0d, 0x0b, 0x03, 0xf5,
  0x06, 0x13, 0x02, 0x06, 0xfa, 0x28, 0x0d, 0x01, 0xf7, 0x16, 0xf9, 0xfe,
  0x05, 0x09, 0xfd, 0xf2, 0xfe, 0x10, 0xfa, 0xf5, 0xfe, 0x10, 0xee, 0x28,
  0xf6, 0xff, 0xf2, 0x0b, 0xf8, 0xf6, 0xf9, 0x0b, 0xf4, 0xee, 0x03, 0x06,
  0xfa, 0xeb, 0xfa, 0xf7, 0xfc, 0xf3, 0xf6, 0x01, 0xf7, 0xf8, 0x04, 0xf3,
  0xf6, 0xfa, 0xfc, 0x00, 0x0d, 0x03, 0x02, 0x00, 0x01, 0xf8, 0x01, 0x01,
  0x02, 0xef, 0x05, 0xfc, 0x0b, 0xf9, 0xfd, 0x00, 0xf6, 0x06, 0xfe, 0x07,
  0xfa, 0xef, 0x08, 0xf4, 0xf0, 0xef, 0x03, 0xff, 0xfa, 0x00, 0x08, 0xf4,
  0xf0, 0x11, 0xf5, 0xf5, 0xf5, 0x05, 0xf2, 0x01, 0x0d, 0xf7, 0x02, 0x00,
  0xfe, 0x00, 0x00, 0x01, 0xf5, 0xde, 0xee, 0xf4, 0x00, 0xe8, 0xf8, 0xf7,
  0xf6, 0x0b, 0xfc, 0x00, 0x0b, 0x01, 0xfa, 0xf2, 0x0d, 0x17, 0x0d, 0xf2,
  0xee, 0x08, 0xf6, 0xfc, 0xf2, 0xfc, 0x00, 0xf6, 0x09, 0x01, 0x01, 0x00,
  0x07, 0x00, 0x03, 0x00, 0xff, 0xf2, 0x01, 0x00, 0xee, 0xd8, 0xe2, 0xe2,
  0xf3, 0xe6, 0x05, 0xeb, 0xed, 0x18, 0x15, 0x00, 0x0d, 0x02, 0xf9, 0x04,
  0xff, 0x06, 0x08, 0xf7, 0xf1, 0x06, 0x03, 0xfe, 0xfe, 0x18, 0x06, 0xf3,
  0x0d, 0x0f, 0xf7, 0xf8, 0xfa, 0x08, 0x01, 0x00, 0x03, 0x1b, 0x06, 0xfe,
  0xf2, 0xd5, 0xe0, 0xe6, 0x00, 0xf5, 0xe7, 0xec, 0xea, 0xff, 0x04, 0x0b,
  0xe9, 0xf9, 0xee, 0xf5, 0x05, 0x01, 0xf7, 0xf9, 0xfe, 0x07, 0xff, 0xf6,
  0x10, 0xfb, 0xff, 0xf5, 0x17, 0x0c, 0x09, 0x01, 0x14, 0x11, 0xf8, 0x02,
  0x09, 0x22, 0xfd, 0x01, 0xe5, 0xe2, 0xc4, 0xdd, 0xed, 0x20, 0xef, 0x03,
  0xe9, 0xe1, 0x04, 0x03, 0xf8, 0xfa, 0x00, 0x11, 0x06, 0x06, 0xf7, 0xf4,
  0xff, 0xf8, 0xf3, 0xfc, 0x0b, 0x07, 0xfd, 0x01, 0x22, 0x0e, 0x04, 0x06,
  0x0e, 0x0e, 0xfc, 0x09, 0x07, 0x0e, 0x03, 0x0a, 0xdd, 0xf2, 0xbf, 0xd4,
  0xfe, 0x30, 0xd6, 0x21, 0x09, 0xe3, 0x0d, 0x01, 0x14, 0x1b, 0x05, 0x01,
  0x13, 0x14, 0x03, 0x0c, 0xfa, 0xfe, 0x00, 0x00, 0x02, 0x16, 0x08, 0x02,
  0x22, 0x26, 0x08, 0x05, 0x10, 0x1f, 0x06, 0x07, 0x04, 0x14, 0x09, 0x08,
  0x03, 0x08, 0xcc, 0xea, 0x08, 0x38, 0xc2, 0x22, 0x04, 0xd8, 0x00, 0x05,
  0xfa, 0x00, 0x07, 0x0b, 0x0d, 0x1a, 0x00, 0x0b, 0xff, 0x1d, 0xef, 0xfb,
  0x2e, 0x39, 0x09, 0xf9, 0x24, 0x17, 0x02, 0x01, 0x18, 0x3e, 0x05, 0x08,
  0x12, 0x2b, 0x03, 0xff, 0x13, 0xee, 0xd1, 0xe7, 0x05, 0x34, 0xab, 0x27,
  0x12, 0xe1, 0xfa, 0x0b, 0x07, 0x20, 0xf9, 0xfc, 0x16, 0x01, 0xfe, 0x02,
  0xf5, 0x0b, 0xf0, 0x01, 0x16, 0x29, 0xf4, 0x07, 0x14, 0x1c, 0x02, 0x07,
  0x15, 0x21, 0x05, 0x0d, 0x0b, 0x23, 0x07, 0x09, 0x2e, 0xf0, 0xd4, 0x12,
  0x05, 0x21, 0xa7, 0x30, 0x1d, 0xe0, 0xe4, 0x11, 0x0d, 0x1d, 0xf2, 0xee,
  0xeb, 0x0e, 0xe7, 0xfb, 0xea, 0xff, 0xf4, 0x01, 0x21, 0x25, 0xff, 0x0a,
  0x09, 0x2d, 0x0b, 0x0e, 0x0d, 0x30, 0xfe, 0x0a, 0x16, 0x18, 0xff, 0x0a,
  0x33, 0x07, 0xd6, 0xfd, 0x25, 0x34, 0xa0, 0x30, 0x23, 0xea, 0xe6, 0x2d,
  0x12, 0x06, 0x08, 0xef, 0xee, 0x1e, 0xee, 0x08, 0xf8, 0x13, 0xe8, 0x0d,
  0x1a, 0x0f, 0xfc, 0x0f, 0x0d, 0x0a, 0x00, 0x1a, 0xfc, 0x11, 0x0f, 0x07,
  0x14, 0xfd, 0x08, 0x00, 0x32, 0x0e, 0x05, 0xf2, 0x16, 0x1c, 0xbd, 0x1f,
  0x1d, 0xd7, 0xdc, 0x16, 0x24, 0xde, 0x01, 0x02, 0xf5, 0x00, 0x02, 0x13,
  0xf7, 0xf6, 0xe8, 0x1a, 0x0c, 0xf7, 0xfb, 0xfd, 0xf0, 0x03, 0x09, 0x0e,
  0x00, 0xfe, 0xfa, 0x04, 0x01, 0x04, 0x03, 0x0e, 0x1f, 0xfb, 0x01, 0x0d,
  0x02, 0x21, 0xe5, 0x24, 0x2f, 0xc4, 0xdf, 0x01, 0x1a, 0x05, 0xf9, 0xf0,
  0xf4, 0x03, 0xfd, 0x12, 0x06, 0xf7, 0xf6, 0x0d, 0x01, 0x05, 0xf7, 0xfa,
  0x00, 0x0c, 0xfd, 0x0c, 0xfd, 0x0d, 0xf3, 0x0b, 0x0b, 0x02, 0xf9, 0x0b,
  0x12, 0xe9, 0x1f, 0x1f, 0xfa, 0x18, 0xf3, 0xf5, 0x21, 0xef, 0xd5, 0x19,
  0x03, 0xea, 0x14, 0x0b, 0xf4, 0xf8, 0xf3, 0x0c, 0xf8, 0x04, 0x03, 0x04,
  0x07, 0x0a, 0x03, 0x0b, 0xf6, 0x20, 0xff, 0x01, 0x00, 0x1b, 0x02, 0xff,
  0x10, 0x0e, 0x08, 0x07, 0xf5, 0xc8, 0x16, 0x27, 0x01, 0xec, 0x07, 0xf6,
  0xf7, 0xe6, 0xe6, 0x0b, 0x09, 0xea, 0x13, 0xff, 0x06, 0xe4, 0xfb, 0xfe,
  0x10, 0x03, 0x00, 0x04, 0xfe, 0xf4, 0x1e, 0xef, 0xfc, 0x13, 0x0f, 0x06,
  0x07, 0x08, 0xfe, 0x07, 0xf8, 0x12, 0x08, 0x0c, 0xf7, 0xd7, 0x02, 0x26,
  0xfc, 0xf0, 0x15, 0xec, 0x03, 0x1b, 0xec, 0xf2, 0x10, 0xf6, 0x10, 0xf7,
  0x28, 0xff, 0x05, 0x0b, 0x14, 0x11, 0x0b, 0x14, 0x07, 0x04, 0x1d, 0x03,
  0x03, 0x19, 0x0f, 0x0a, 0x0c, 0x13, 0x0b, 0x17, 0xfd, 0x05, 0x03, 0x08,
  0xeb, 0xd0, 0x08, 0x1f, 0x00, 0xe4, 0x2f, 0xf0, 0xff, 0x15, 0x05, 0xe6,
  0x16, 0xea, 0x0b, 0x07, 0x06, 0xe7, 0x0f, 0xfc, 0x04, 0xeb, 0x13, 0x03,
  0x1e, 0x0f, 0x02, 0x0e, 0x12, 0x00, 0x09, 0x04, 0x18, 0x0e, 0x12, 0x09,
  0xfd, 0xfc, 0x0a, 0x07, 0xf6, 0xe2, 0x09, 0x07, 0x0a, 0xf3, 0x10, 0xe9,
  0xfb, 0xfa, 0x09, 0xe0, 0x13, 0xf4, 0x02, 0xf4, 0x16, 0xef, 0xee, 0xef,
  0x12, 0xed, 0x0c, 0xee, 0x0d, 0x00, 0x10, 0xf0, 0x02, 0x0a, 0x04, 0xfe,
  0x04, 0xfd, 0x08, 0xfd, 0xfa, 0xf8, 0x00, 0x0e, 0xf7, 0xf4, 0x00, 0x17,
  0x01, 0xfc, 0xf4, 0x02, 0x04, 0xf9, 0x0d, 0xdc, 0x09, 0xed, 0xeb, 0xe2,
  0x0d, 0xe3, 0xf5, 0xf3, 0x16, 0xe1, 0x04, 0xfb, 0x00, 0xf4, 0x0d, 0xff,
  0x02, 0xf1, 0x06, 0x09, 0xf1, 0xea, 0x02, 0x0c, 0xfe, 0xf2, 0x09, 0x08,
  0xf3, 0xfe, 0xfe, 0x1c, 0x08, 0xe6, 0x0f, 0xdd, 0x0a, 0xf6, 0xeb, 0xe2,
  0x01, 0xed, 0x03, 0xf1, 0xff, 0xda, 0xf6, 0xff, 0x16, 0xd5, 0x03, 0x00,
  0xfd, 0xea, 0xfc, 0x06, 0x04, 0xee, 0x14, 0xf5, 0xeb, 0xe8, 0x04, 0x07,
  0x00, 0xf0, 0x01, 0x0a, 0xfe, 0xe5, 0xf7, 0xfd, 0x0c, 0xee, 0x16, 0x06,
